{"version":"1.0","truncation":null,"padding":null,"added_tokens":[{"id":0,"content":"<pad>","single_word":false,"lstrip":false,"rstrip":false,"normalized":false,"special":true},{"id":1,"content":"<unk>","single_word":false,"lstrip":false,"rstrip":false,"normalized":false,"special":true},{"id":2,"content":"<bos>","single_word":false,"lstrip":false,"rstrip":false,"normalized":false,"special":true},{"id":3,"content":"<eos>","single_word":false,"lstrip":false,"rstrip":false,"normalized":false,"special":true},{"id":4,"content":"<mask>","single_word":false,"lstrip":false,"rstrip":false,"normalized":false,"special":true}],"normalizer":null,"pre_tokenizer":{"type":"WhitespaceSplit"},"post_processor":null,"decoder":{"type":"BPEDecoder","suffix":"</w>"},"model":{"type":"BPE","dropout":null,"unk_token":"<unk>","continuing_subword_prefix":null,"end_of_word_suffix":"</w>","fuse_unk":false,"byte_fallback":false,"ignore_merges":false,"vocab":{"<pad>":0,"<unk>":1,"<bos>":2,"<eos>":3,"<mask>":4,"!":5,"!</w>":6,"#":7,"#9":8,"#</w>":9,"$":10,"$</w>":11,"%":12,"%</w>":13,"&":14,"&#9":15,"&#91;</w>":16,"&#93;</w>":17,"&a":18,"&amp":19,"&amp;</w>":20,"&apos":21,"&apos;":22,"&apos;</w>":23,"&apos;d</w>":24,"&apos;ll</w>":25,"&apos;m</w>":26,"&apos;re</w>":27,"&apos;s</w>":28,"&apos;t</w>":29,"&apos;ve</w>":30,"&quot":31,"&quot;</w>":32,"(":33,"(</w>":34,")":35,")</w>":36,"*":37,"*</w>":38,"+":39,"+</w>":40,",":41,",000</w>":42,",</w>":43,"-":44,"--</w>":45,"-</w>":46,"-up</w>":47,"-year-old</w>":48,".":49,"...</w>":50,"..</w>":51,".000</w>":52,".</w>":53,".b.</w>":54,".com</w>":55,"/":56,"/</w>":57,"0":58,"0,000</w>":59,"0-":60,"0.000</w>":61,"00":62,"000</w>":63,"00</w>":64,"0</w>":65,"0er</w>":66,"0ern</w>":67,"0s</w>":68,"1":69,"1,":70,"1,000</w>":71,"1.":72,"1.000</w>":73,"1.</w>":74,"10":75,"10,000</w>":76,"10.000</w>":77,"100,000</w>":78,"100</w>":79,"10</w>":80,"11</w>":81,"12":82,"120</w>":83,"12</w>":84,"13":85,"13</w>":86,"14":87,"14</w>":88,"15":89,"150</w>":90,"15</w>":91,"16":92,"16</w>":93,"17":94,"17</w>":95,"18":96,"18</w>":97,"19":98,"193":99,"194":100,"195":101,"196":102,"1960</w>":103,"197":104,"198":105,"199":106,"19</w>":107,"1;</w>":108,"1</w>":109,"2":110,"2,":111,"2,000</w>":112,"2-":113,"2.":114,"20":115,"20.</w>":116,"200":117,"2000</w>":118,"2001</w>":119,"2003</w>":120,"2004</w>":121,"2005</w>":122,"2006</w>":123,"2007</w>":124,"2008</w>":125,"2009</w>":126,"200</w>":127,"2010</w>":128,"20</w>":129,"20th</w>":130,"21":131,"21.</w>":132,"21</w>":133,"22</w>":134,"23</w>":135,"24":136,"24</w>":137,"25":138,"250</w>":139,"25</w>":140,"26</w>":141,"27</w>":142,"28</w>":143,"29</w>":144,"2</w>":145,"3":146,"3,000</w>":147,"300</w>":148,"30</w>":149,"32</w>":150,"35</w>":151,"3;</w>":152,"3</w>":153,"3d</w>":154,"4":155,"40":156,"400</w>":157,"40</w>":158,"45</w>":159,"4</w>":160,"5":161,"5,000</w>":162,"5.000</w>":163,"50":164,"500</w>":165,"50</w>":166,"5</w>":167,"6":168,"600</w>":169,"60</w>":170,"65</w>":171,"6</w>":172,"7":173,"700</w>":174,"70</w>":175,"75</w>":176,"7</w>":177,"8":178,"800</w>":179,"80</w>":180,"85</w>":181,"8</w>":182,"9":183,"90</w>":184,"95</w>":185,"99</w>":186,"9</w>":187,":":188,":</w>":189,";":190,";</w>":191,"=":192,"=</w>":193,"?":194,"?</w>":195,"@":196,"@</w>":197,"\\":198,"\\</w>":199,"^":200,"^</w>":201,"_":202,"_</w>":203,"`":204,"`</w>":205,"a":206,"a-":207,"a.</w>":208,"a</w>":209,"ab":210,"ab</w>":211,"abend</w>":212,"aber</w>":213,"abge":214,"abhän":215,"abhängi":216,"abhängig</w>":217,"abili":218,"abilities</w>":219,"ability</w>":220,"able</w>":221,"ables</w>":222,"abli":223,"ably</w>":224,"abo":225,"abor":226,"about</w>":227,"above</w>":228,"abra":229,"abschluss</w>":230,"absicht</w>":231,"absol":232,"absolu":233,"absolut</w>":234,"absolute</w>":235,"absolutely</w>":236,"absor":237,"abstra":238,"abzu":239,"ac":240,"acade":241,"acc":242,"acceler":243,"accep":244,"accept</w>":245,"access</w>":246,"acci":247,"accident</w>":248,"accor":249,"according</w>":250,"accoun":251,"account</w>":252,"accu":253,"ace</w>":254,"ach":255,"ach</w>":256,"achie":257,"achieve</w>":258,"achse</w>":259,"acht":260,"acht</w>":261,"achten</w>":262,"aci":263,"ack":264,"ack</w>":265,"across</w>":266,"act</w>":267,"acting</w>":268,"action</w>":269,"actions</w>":270,"activ":271,"active</w>":272,"activi":273,"activity</w>":274,"actor</w>":275,"acts</w>":276,"actu":277,"actual</w>":278,"actually</w>":279,"acy</w>":280,"ad":281,"ad</w>":282,"ada":283,"ada</w>":284,"adam</w>":285,"adap":286,"add":287,"add</w>":288,"addi":289,"addition</w>":290,"address</w>":291,"ade":292,"ade</w>":293,"aded</w>":294,"aden</w>":295,"adi":296,"ading</w>":297,"admini":298,"adop":299,"ads</w>":300,"adul":301,"adult</w>":302,"adults</w>":303,"advan":304,"advanced</w>":305,"advantage</w>":306,"adverti":307,"af":308,"aff":309,"affe":310,"affec":311,"affect</w>":312,"affected</w>":313,"affen</w>":314,"afford</w>":315,"afgh":316,"afghani":317,"afghanistan</w>":318,"afraid</w>":319,"afri":320,"africa</w>":321,"african</w>":322,"afrika</w>":323,"afrikan":324,"afrikanischen</w>":325,"afrikas</w>":326,"after":327,"after</w>":328,"ag":329,"aga":330,"again</w>":331,"against</w>":332,"age</w>":333,"agen":334,"agen</w>":335,"agenda</w>":336,"ager</w>":337,"ages</w>":338,"agi":339,"agieren</w>":340,"aging</w>":341,"ago</w>":342,"agre":343,"agree</w>":344,"agri":345,"agriculture</w>":346,"agt</w>":347,"ah":348,"ah</w>":349,"ahead</w>":350,"ahnung</w>":351,"ai":352,"ai</w>":353,"aid</w>":354,"aids</w>":355,"air":356,"air</w>":357,"airplane</w>":358,"ak":359,"ak</w>":360,"akt</w>":361,"aktiv</w>":362,"aktivi":363,"aktivität</w>":364,"aktu":365,"aku":366,"akzep":367,"akzeptieren</w>":368,"al":369,"al-":370,"al</w>":371,"ala</w>":372,"ald</w>":373,"ale":374,"ale</w>":375,"aled</w>":376,"alen</w>":377,"aler</w>":378,"ales</w>":379,"alex":380,"alg":381,"algorith":382,"ali":383,"alia</w>":384,"alien</w>":385,"alifor":386,"aling</w>":387,"alisi":388,"alisieren</w>":389,"alisiert</w>":390,"alisierung</w>":391,"alism</w>":392,"alismus</w>":393,"alist</w>":394,"alisten</w>":395,"alists</w>":396,"ality</w>":397,"alität</w>":398,"alive</w>":399,"alization</w>":400,"alize</w>":401,"alized</w>":402,"all":403,"all</w>":404,"alle":405,"alle</w>":406,"allein</w>":407,"alleine</w>":408,"allem</w>":409,"allen":410,"allen</w>":411,"aller":412,"aller</w>":413,"allerdings</w>":414,"alles</w>":415,"allge":416,"allgemeinen</w>":417,"alli":418,"allo":419,"allow</w>":420,"allowed</w>":421,"allows</w>":422,"alls</w>":423,"ally</w>":424,"almost</w>":425,"alo":426,"alone</w>":427,"along</w>":428,"alp":429,"already</w>":430,"als</w>":431,"also</w>":432,"alt":433,"alt</w>":434,"alte</w>":435,"alten</w>":436,"alter":437,"alter</w>":438,"alterna":439,"alternative</w>":440,"altet</w>":441,"although</w>":442,"always</w>":443,"aly":444,"alzhei":445,"alzheimer</w>":446,"am":447,"am</w>":448,"ama":449,"ama</w>":450,"amazing</w>":451,"ambi":452,"ame</w>":453,"amei":454,"ameisen</w>":455,"amer":456,"amera</w>":457,"ameras</w>":458,"ameri":459,"americ":460,"america</w>":461,"american</w>":462,"americans</w>":463,"amerika</w>":464,"amerikan":465,"amerikaner</w>":466,"amerikanische</w>":467,"amerikanischen</w>":468,"ames</w>":469,"ami</w>":470,"amin":471,"aming</w>":472,"amo":473,"among</w>":474,"amount</w>":475,"amp</w>":476,"ams</w>":477,"an":478,"an-":479,"an</w>":480,"ana</w>":481,"anal":482,"analog":483,"analy":484,"analyse</w>":485,"analysis</w>":486,"ance":487,"ance</w>":488,"ancestors</w>":489,"ancient</w>":490,"and":491,"and-":492,"and</w>":493,"anda</w>":494,"ander":495,"ander</w>":496,"andere</w>":497,"anderem</w>":498,"anderen</w>":499,"anderer</w>":500,"anderes</w>":501,"anders</w>":502,"anderth":503,"andre":504,"ands</w>":505,"aner</w>":506,"anfang</w>":507,"anfangen</w>":508,"ang":509,"ang</w>":510,"ange":511,"ange</w>":512,"angeb":513,"angefangen</w>":514,"angel":515,"angeles</w>":516,"angeneh":517,"angenommen</w>":518,"angesehen</w>":519,"angi":520,"angiogen":521,"angle</w>":522,"angst</w>":523,"anhand</w>":524,"ani":525,"ania</w>":526,"anim":527,"anima":528,"animal</w>":529,"animals</w>":530,"anischen</w>":531,"ank":532,"ank</w>":533,"anlage</w>":534,"ann</w>":535,"annehmen</w>":536,"anno":537,"announ":538,"anony":539,"another</w>":540,"anpas":541,"anrei":542,"ans":543,"ans</w>":544,"ansatz</w>":545,"anschauen</w>":546,"ansehen</w>":547,"ansicht</w>":548,"anstatt</w>":549,"anstelle</w>":550,"answer</w>":551,"answers</w>":552,"ant":553,"ant</w>":554,"anteil</w>":555,"anten":556,"anten</w>":557,"anth":558,"anthro":559,"anthropo":560,"anti":561,"anti-":562,"antibio":563,"antly</w>":564,"ants</w>":565,"antwor":566,"antwort</w>":567,"antworten</w>":568,"anwen":569,"anwenden</w>":570,"anwendung</w>":571,"any":572,"any</w>":573,"anybody</w>":574,"anymore</w>":575,"anyone</w>":576,"anything</w>":577,"anyway</w>":578,"anywhere</w>":579,"anz</w>":580,"anzahl</w>":581,"anzu":582,"ap":583,"ap</w>":584,"apart</w>":585,"aper</w>":586,"apo":587,"app":588,"appar":589,"appe":590,"appear</w>":591,"appl":592,"apple</w>":593,"appli":594,"applied</w>":595,"apply</w>":596,"appreci":597,"appro":598,"approach":599,"approach</w>":600,"appropri":601,"appropriate</w>":602,"ar":603,"ar-":604,"ar</w>":605,"arab":606,"arb":607,"arbei":608,"arbeit":609,"arbeit</w>":610,"arbeite</w>":611,"arbeiten</w>":612,"arbeiter</w>":613,"arbeitet</w>":614,"arbeitete</w>":615,"arbeiteten</w>":616,"arbeits":617,"arbeitsp":618,"arc":619,"arch":620,"archi":621,"archit":622,"archite":623,"architec":624,"architect</w>":625,"architecture</w>":626,"architek":627,"architekten</w>":628,"architektur</w>":629,"ard</w>":630,"ardo</w>":631,"ards</w>":632,"are":633,"are</w>":634,"area</w>":635,"areas</w>":636,"ared</w>":637,"aren</w>":638,"argu":639,"argue</w>":640,"argument</w>":641,"ari":642,"arian</w>":643,"aries</w>":644,"arily</w>":645,"aring</w>":646,"arkti":647,"arly</w>":648,"arm":649,"arm</w>":650,"arma":651,"arme</w>":652,"armen</w>":653,"arms</w>":654,"armut</w>":655,"army</w>":656,"aro":657,"around</w>":658,"arr":659,"arri":660,"arrived</w>":661,"ars</w>":662,"art":663,"art</w>":664,"arten</w>":665,"arti":666,"artic":667,"article</w>":668,"artificial</w>":669,"artige</w>":670,"artikel</w>":671,"artist</w>":672,"artists</w>":673,"arts</w>":674,"ary</w>":675,"arzt</w>":676,"as":677,"as</w>":678,"ase</w>":679,"ased</w>":680,"ases</w>":681,"ash</w>":682,"asi":683,"asia</w>":684,"asien</w>":685,"asing</w>":686,"ask</w>":687,"asked</w>":688,"asking</w>":689,"aspe":690,"aspekt</w>":691,"ass</w>":692,"asse":693,"asse</w>":694,"assem":695,"assen</w>":696,"assi":697,"associ":698,"associated</w>":699,"assu":700,"ast":701,"ast</w>":702,"aster</w>":703,"astern</w>":704,"astero":705,"astro":706,"astron":707,"astronom":708,"astrop":709,"asy</w>":710,"at":711,"at</w>":712,"ate":713,"ate</w>":714,"ated</w>":715,"ately</w>":716,"atem":717,"aten</w>":718,"ater</w>":719,"ates</w>":720,"ath":721,"ath</w>":722,"athei":723,"ating</w>":724,"ation</w>":725,"ationen</w>":726,"ations</w>":727,"ative</w>":728,"atlan":729,"atmen</w>":730,"atmosp":731,"atmosphere</w>":732,"atmosphäre</w>":733,"atom":734,"atoms</w>":735,"ator</w>":736,"ators</w>":737,"atory</w>":738,"atri":739,"ats</w>":740,"att":741,"att</w>":742,"atta":743,"attac":744,"attack</w>":745,"attemp":746,"atten":747,"atten</w>":748,"attention</w>":749,"attle</w>":750,"attra":751,"atur":752,"atur</w>":753,"ature</w>":754,"atures</w>":755,"atz</w>":756,"au":757,"au</w>":758,"auch</w>":759,"audi":760,"audience</w>":761,"auen</w>":762,"auf":763,"auf</w>":764,"aufbau</w>":765,"aufbauen</w>":766,"aufen</w>":767,"auff":768,"aufgab":769,"aufgabe</w>":770,"aufgaben</w>":771,"aufge":772,"aufgebaut</w>":773,"aufgenommen</w>":774,"aufgrund</w>":775,"aufhören</w>":776,"aufmerk":777,"aufmerksamkeit</w>":778,"aufnahme</w>":779,"aufnahmen</w>":780,"aufre":781,"aufregend</w>":782,"aufzu":783,"aufzubauen</w>":784,"aug":785,"auge</w>":786,"augen":787,"augen</w>":788,"augenblick</w>":789,"aum</w>":790,"aus":791,"aus</w>":792,"ausbildung</w>":793,"ausdruck</w>":794,"ause</w>":795,"ausge":796,"ausgeben</w>":797,"ausmaß</w>":798,"aussehen</w>":799,"aussieht</w>":800,"ausstellung</w>":801,"austr":802,"australia</w>":803,"australien</w>":804,"auswirkungen</w>":805,"auszu":806,"aut</w>":807,"auth":808,"authenti":809,"autis":810,"auto":811,"auto</w>":812,"autom":813,"automo":814,"auton":815,"autonom":816,"autor":817,"autor</w>":818,"autos</w>":819,"auß":820,"außen":821,"außen</w>":822,"außer":823,"außer</w>":824,"außerdem</w>":825,"außergewöhn":826,"außerhalb</w>":827,"avail":828,"available</w>":829,"average</w>":830,"avo":831,"avoid</w>":832,"aw":833,"awar":834,"aware</w>":835,"awareness</w>":836,"away</w>":837,"awful</w>":838,"ax":839,"axis</w>":840,"ay":841,"ay</w>":842,"b":843,"b.</w>":844,"b</w>":845,"ba":846,"ba</w>":847,"bab":848,"babies</w>":849,"baby</w>":850,"babys</w>":851,"bac":852,"back":853,"back</w>":854,"background</w>":855,"bacteri":856,"bacteria</w>":857,"bad</w>":858,"bag":859,"bag</w>":860,"bahn":861,"bahn</w>":862,"bai</w>":863,"bak":864,"bakteri":865,"bakterien</w>":866,"bal":867,"balance</w>":868,"bald</w>":869,"ball":870,"ball</w>":871,"ballo":872,"ban":873,"ban</w>":874,"band":875,"band</w>":876,"bang":877,"bang</w>":878,"banglades":879,"bank":880,"bank</w>":881,"bar":882,"bar</w>":883,"bare</w>":884,"baren</w>":885,"barer</w>":886,"bares</w>":887,"barkeit</w>":888,"barri":889,"bas":890,"base":891,"base</w>":892,"baseball</w>":893,"based</w>":894,"basic</w>":895,"basically</w>":896,"basier":897,"basiert</w>":898,"basis</w>":899,"bat":900,"bat</w>":901,"battery</w>":902,"battle</w>":903,"bau":904,"bau</w>":905,"bauen</w>":906,"bauern</w>":907,"baum":908,"baum</w>":909,"baut</w>":910,"baute</w>":911,"bauten</w>":912,"bay</w>":913,"bby</w>":914,"be":915,"be</w>":916,"beach</w>":917,"beantworten</w>":918,"bear</w>":919,"beat</w>":920,"beau":921,"beauti":922,"beautiful</w>":923,"beauty</w>":924,"bec":925,"became</w>":926,"because</w>":927,"become</w>":928,"becomes</w>":929,"becoming</w>":930,"bed":931,"bed</w>":932,"bedarf</w>":933,"bedenken</w>":934,"bedeu":935,"bedeuten":936,"bedeuten</w>":937,"bedeutet</w>":938,"bedeutung</w>":939,"beding":940,"bedingt</w>":941,"bedingungen</w>":942,"bedro":943,"bedür":944,"bedürf":945,"bedürfnisse</w>":946,"bee":947,"beein":948,"beeindruck":949,"beeinflus":950,"beeinflussen</w>":951,"beeinflusst</w>":952,"been</w>":953,"bees</w>":954,"befinden</w>":955,"befindet</w>":956,"before</w>":957,"beg":958,"began":959,"began</w>":960,"begann</w>":961,"begannen</w>":962,"begeg":963,"begei":964,"begeistert</w>":965,"begin</w>":966,"beginn":967,"beginn</w>":968,"beginnen</w>":969,"beginning</w>":970,"beginnt</w>":971,"begins</w>":972,"beglei":973,"begonnen</w>":974,"begren":975,"begri":976,"begriff</w>":977,"beh":978,"beha":979,"behalten</w>":980,"behand":981,"behandeln</w>":982,"behandelt</w>":983,"behandlung</w>":984,"behaup":985,"behavi":986,"behavior</w>":987,"behaviors</w>":988,"behind</w>":989,"behinder":990,"behör":991,"bei":992,"bei</w>":993,"beide</w>":994,"beiden</w>":995,"beim</w>":996,"bein":997,"bein</w>":998,"beina":999,"beinahe</w>":1000,"beine</w>":1001,"being</w>":1002,"beings</w>":1003,"beinhal":1004,"beinhaltet</w>":1005,"beispiel":1006,"beispiel</w>":1007,"beispiele</w>":1008,"beispielsweise</w>":1009,"bekam</w>":1010,"bekamen</w>":1011,"bekan":1012,"bekann":1013,"bekannt</w>":1014,"bekannte</w>":1015,"bekannten</w>":1016,"bekommen</w>":1017,"bekommt</w>":1018,"bel":1019,"bel</w>":1020,"belast":1021,"bele":1022,"belie":1023,"belief</w>":1024,"believe</w>":1025,"believed</w>":1026,"bell</w>":1027,"belo":1028,"below</w>":1029,"bemer":1030,"bemerken</w>":1031,"bemerkens":1032,"bemerkt</w>":1033,"bemü":1034,"ben":1035,"ben</w>":1036,"bende</w>":1037,"bene":1038,"bene</w>":1039,"benef":1040,"benefit</w>":1041,"benefits</w>":1042,"benen</w>":1043,"benu":1044,"benutz":1045,"benutzen</w>":1046,"benutzt</w>":1047,"benö":1048,"benötigen</w>":1049,"benötigt</w>":1050,"beob":1051,"beobach":1052,"beobachten</w>":1053,"beobachtet</w>":1054,"ber":1055,"ber</w>":1056,"berech":1057,"berei":1058,"bereich</w>":1059,"bereiche</w>":1060,"bereichen</w>":1061,"bereit</w>":1062,"bereits</w>":1063,"berg":1064,"berg</w>":1065,"beri":1066,"berichten</w>":1067,"bers</w>":1068,"bert</w>":1069,"beru":1070,"berü":1071,"berühm":1072,"berühr":1073,"berührt</w>":1074,"bes":1075,"bes</w>":1076,"besch":1077,"beschei":1078,"beschle":1079,"beschloss</w>":1080,"beschlossen</w>":1081,"beschrei":1082,"beschreiben</w>":1083,"beschrän":1084,"beschäf":1085,"beschäftigen</w>":1086,"beschäftigt</w>":1087,"besit":1088,"besitzen</w>":1089,"beson":1090,"besonder":1091,"besondere</w>":1092,"besonders</w>":1093,"besor":1094,"bess":1095,"besser":1096,"besser</w>":1097,"bessere</w>":1098,"besseren</w>":1099,"best":1100,"best</w>":1101,"bestand":1102,"bestand</w>":1103,"beste</w>":1104,"bestehen</w>":1105,"besteht</w>":1106,"besten</w>":1107,"bestim":1108,"bestimm":1109,"bestimmen</w>":1110,"bestimmt</w>":1111,"bestimmte</w>":1112,"bestimmten</w>":1113,"bestä":1114,"besu":1115,"besuchen</w>":1116,"bet":1117,"bet</w>":1118,"beteili":1119,"beten</w>":1120,"betr":1121,"betra":1122,"betrachten</w>":1123,"betrachtet</w>":1124,"betrifft</w>":1125,"bett</w>":1126,"better</w>":1127,"between</w>":1128,"beu":1129,"bevor</w>":1130,"bevöl":1131,"bevölk":1132,"bevölker":1133,"bevölkerung</w>":1134,"bewe":1135,"beweg":1136,"bewegen</w>":1137,"bewegt</w>":1138,"bewegung</w>":1139,"bewegungen</w>":1140,"beweis</w>":1141,"beweise</w>":1142,"beweisen</w>":1143,"bewer":1144,"bewus":1145,"bewusst":1146,"bewusst</w>":1147,"bewusstsein</w>":1148,"bey":1149,"beyond</w>":1150,"beza":1151,"bezahlen</w>":1152,"bezahlt</w>":1153,"bezieh":1154,"beziehen</w>":1155,"beziehung</w>":1156,"beziehungen</w>":1157,"bezug</w>":1158,"bezüglich</w>":1159,"bf</w>":1160,"bi":1161,"bi</w>":1162,"bia</w>":1163,"bibli":1164,"bibliothe":1165,"bie":1166,"bienen</w>":1167,"bieren</w>":1168,"biert</w>":1169,"bieten</w>":1170,"bietet</w>":1171,"big":1172,"big</w>":1173,"bigger</w>":1174,"biggest</w>":1175,"bil":1176,"bild":1177,"bild</w>":1178,"bilden</w>":1179,"bilder</w>":1180,"bildern</w>":1181,"bildet</w>":1182,"bildschirm</w>":1183,"bildung</w>":1184,"bildungs":1185,"bile</w>":1186,"bili":1187,"bilities</w>":1188,"bility</w>":1189,"bill</w>":1190,"billi":1191,"billion</w>":1192,"billions</w>":1193,"bin":1194,"bin</w>":1195,"bine</w>":1196,"bing</w>":1197,"bio":1198,"biolog":1199,"biological</w>":1200,"biologie</w>":1201,"biology</w>":1202,"biot":1203,"bir":1204,"bird</w>":1205,"birds</w>":1206,"birth":1207,"birth</w>":1208,"birthday</w>":1209,"bis":1210,"bis</w>":1211,"bisher</w>":1212,"bisschen</w>":1213,"bist</w>":1214,"bit":1215,"bit</w>":1216,"bits</w>":1217,"bitte</w>":1218,"bitten</w>":1219,"bizar":1220,"bl":1221,"bla":1222,"black":1223,"black</w>":1224,"blan":1225,"blas":1226,"blatt</w>":1227,"blau":1228,"blau</w>":1229,"blauen</w>":1230,"ble":1231,"ble</w>":1232,"bled</w>":1233,"blei":1234,"bleiben</w>":1235,"bleibt</w>":1236,"bles</w>":1237,"bli":1238,"blich</w>":1239,"blick":1240,"blick</w>":1241,"blieb</w>":1242,"blin":1243,"blind</w>":1244,"bling</w>":1245,"blo":1246,"block":1247,"block</w>":1248,"blocks</w>":1249,"blog":1250,"blog</w>":1251,"blogs</w>":1252,"blood</w>":1253,"bloß</w>":1254,"blu":1255,"blue</w>":1256,"blut":1257,"blut</w>":1258,"bly</w>":1259,"blä":1260,"blü":1261,"bo":1262,"bo</w>":1263,"board</w>":1264,"boat</w>":1265,"bob</w>":1266,"boden</w>":1267,"bodies</w>":1268,"body</w>":1269,"bogen</w>":1270,"bol":1271,"bom":1272,"bon":1273,"bone</w>":1274,"boo":1275,"book</w>":1276,"books</w>":1277,"boot</w>":1278,"bor":1279,"born</w>":1280,"boston</w>":1281,"bot":1282,"bot</w>":1283,"both</w>":1284,"botschaft</w>":1285,"bottle</w>":1286,"bottom</w>":1287,"bought</w>":1288,"boun":1289,"boundar":1290,"bow":1291,"box</w>":1292,"boy</w>":1293,"boys</w>":1294,"br":1295,"bra":1296,"brach</w>":1297,"brachte</w>":1298,"brachten</w>":1299,"brain</w>":1300,"brains</w>":1301,"bran":1302,"brand":1303,"brand</w>":1304,"bras":1305,"brasili":1306,"brau":1307,"brauch</w>":1308,"brauche</w>":1309,"brauchen</w>":1310,"braucht</w>":1311,"brauchte</w>":1312,"brauchten</w>":1313,"brazi":1314,"bre":1315,"brea":1316,"bread</w>":1317,"break":1318,"break</w>":1319,"breaking</w>":1320,"breast</w>":1321,"breath</w>":1322,"brech":1323,"brechen</w>":1324,"brei":1325,"breite</w>":1326,"bren":1327,"brenn":1328,"bri":1329,"brian</w>":1330,"bridge</w>":1331,"brie":1332,"brief</w>":1333,"bright</w>":1334,"brilli":1335,"brilliant</w>":1336,"bring</w>":1337,"bringen</w>":1338,"bringing</w>":1339,"brings</w>":1340,"bringt</w>":1341,"britain</w>":1342,"britan":1343,"british</w>":1344,"bro":1345,"broad":1346,"broke</w>":1347,"broken</w>":1348,"bron":1349,"bronx</w>":1350,"broo":1351,"brot</w>":1352,"brother</w>":1353,"brothers</w>":1354,"brought</w>":1355,"brow":1356,"brown</w>":1357,"bru":1358,"bruch</w>":1359,"bruder</w>":1360,"brust":1361,"brü":1362,"brücke</w>":1363,"bs":1364,"bs</w>":1365,"bt</w>":1366,"bu":1367,"bub":1368,"bubble</w>":1369,"buch":1370,"buch</w>":1371,"buchstab":1372,"buchstä":1373,"buchstäblich</w>":1374,"bucks</w>":1375,"bud":1376,"budd":1377,"budget</w>":1378,"buil":1379,"build</w>":1380,"building</w>":1381,"buildings</w>":1382,"built</w>":1383,"bul":1384,"bun":1385,"bunch</w>":1386,"bung</w>":1387,"bur":1388,"burn</w>":1389,"burning</w>":1390,"bus":1391,"bus</w>":1392,"bush</w>":1393,"busin":1394,"business</w>":1395,"businesses</w>":1396,"but</w>":1397,"butt":1398,"buy</w>":1399,"buying</w>":1400,"by":1401,"by</w>":1402,"bä":1403,"bäume</w>":1404,"bö":1405,"bü":1406,"bücher</w>":1407,"büchern</w>":1408,"bühne</w>":1409,"bür":1410,"bürger":1411,"bürger</w>":1412,"büro":1413,"büro</w>":1414,"c":1415,"c.</w>":1416,"c</w>":1417,"ca":1418,"ca.</w>":1419,"ca</w>":1420,"cab":1421,"caf":1422,"cal":1423,"cal</w>":1424,"calcu":1425,"calcul":1426,"califor":1427,"california</w>":1428,"call":1429,"call</w>":1430,"called</w>":1431,"calling</w>":1432,"calls</w>":1433,"cally</w>":1434,"cals</w>":1435,"cam":1436,"cambridge</w>":1437,"came</w>":1438,"camera</w>":1439,"camp</w>":1440,"campaig":1441,"campaign</w>":1442,"can":1443,"can</w>":1444,"canada</w>":1445,"cancer</w>":1446,"cannot</w>":1447,"cans</w>":1448,"cap":1449,"capable</w>":1450,"capac":1451,"capacity</w>":1452,"cape</w>":1453,"capit":1454,"capital</w>":1455,"capture</w>":1456,"car":1457,"car</w>":1458,"carb":1459,"carbon</w>":1460,"card</w>":1461,"cards</w>":1462,"care":1463,"care</w>":1464,"career</w>":1465,"carefully</w>":1466,"carry</w>":1467,"carrying</w>":1468,"cars</w>":1469,"carto":1470,"cas":1471,"case</w>":1472,"cases</w>":1473,"casi":1474,"cast</w>":1475,"cat":1476,"catch</w>":1477,"cate</w>":1478,"cated</w>":1479,"categ":1480,"cation</w>":1481,"cational</w>":1482,"cations</w>":1483,"cau":1484,"caught</w>":1485,"caus":1486,"cause</w>":1487,"caused</w>":1488,"causes</w>":1489,"ce":1490,"ce-":1491,"ce</w>":1492,"ced</w>":1493,"cei":1494,"cel":1495,"cele":1496,"celebra":1497,"cell":1498,"cell</w>":1499,"cells</w>":1500,"cen":1501,"cen</w>":1502,"cent":1503,"cent</w>":1504,"center</w>":1505,"centers</w>":1506,"centi":1507,"central</w>":1508,"cents</w>":1509,"century</w>":1510,"cep":1511,"cept</w>":1512,"ception</w>":1513,"cer":1514,"cer</w>":1515,"cers</w>":1516,"certain":1517,"certain</w>":1518,"certainly</w>":1519,"ces</w>":1520,"cess":1521,"cess</w>":1522,"ch":1523,"ch-":1524,"ch</w>":1525,"cha":1526,"chain</w>":1527,"chair</w>":1528,"challen":1529,"challenge</w>":1530,"challenges</w>":1531,"cham":1532,"chan":1533,"chance</w>":1534,"change</w>":1535,"changed</w>":1536,"changes</w>":1537,"changing</w>":1538,"chaos</w>":1539,"chap":1540,"char":1541,"charac":1542,"character</w>":1543,"characteri":1544,"characters</w>":1545,"charak":1546,"charakter</w>":1547,"charge</w>":1548,"charles</w>":1549,"che":1550,"che</w>":1551,"cheap</w>":1552,"check</w>":1553,"ched</w>":1554,"chel</w>":1555,"chem":1556,"chem</w>":1557,"chemi":1558,"chemical</w>":1559,"chemicals</w>":1560,"chemie</w>":1561,"chemikalien</w>":1562,"chemistry</w>":1563,"chen":1564,"chen</w>":1565,"cher":1566,"cher</w>":1567,"chern</w>":1568,"chers</w>":1569,"ches</w>":1570,"chi":1571,"chic":1572,"chicago</w>":1573,"chicken</w>":1574,"chil":1575,"child":1576,"child</w>":1577,"childhood</w>":1578,"childr":1579,"children</w>":1580,"chimpan":1581,"chimpanze":1582,"chin":1583,"china</w>":1584,"chines":1585,"chinese</w>":1586,"ching</w>":1587,"chip</w>":1588,"chir":1589,"chirur":1590,"chmal</w>":1591,"cho":1592,"choice</w>":1593,"choices</w>":1594,"chol":1595,"choo":1596,"choose</w>":1597,"chr":1598,"chri":1599,"chris</w>":1600,"christ":1601,"chro":1602,"chromo":1603,"chron":1604,"chs":1605,"chs</w>":1606,"chst</w>":1607,"cht":1608,"cht</w>":1609,"chte</w>":1610,"chten":1611,"chten</w>":1612,"chter":1613,"chter</w>":1614,"chtern</w>":1615,"chtes</w>":1616,"chtet</w>":1617,"chtete</w>":1618,"chti":1619,"chtigkeit</w>":1620,"chts":1621,"chts</w>":1622,"chtung</w>":1623,"chung</w>":1624,"chungen</w>":1625,"chur":1626,"church</w>":1627,"ci":1628,"cial</w>":1629,"cially</w>":1630,"cian</w>":1631,"cians</w>":1632,"cide</w>":1633,"cient</w>":1634,"cies</w>":1635,"cil</w>":1636,"cin":1637,"cin</w>":1638,"cing</w>":1639,"cious</w>":1640,"cir":1641,"circle</w>":1642,"circu":1643,"circum":1644,"cis":1645,"cisco</w>":1646,"cise</w>":1647,"citi":1648,"cities</w>":1649,"citizens</w>":1650,"city</w>":1651,"civil</w>":1652,"civili":1653,"civilization</w>":1654,"ck":1655,"ck</w>":1656,"cke</w>":1657,"cked</w>":1658,"cken":1659,"cken</w>":1660,"cker":1661,"cker</w>":1662,"cket</w>":1663,"ckets</w>":1664,"cking</w>":1665,"cks</w>":1666,"ckt</w>":1667,"ckte</w>":1668,"ckten</w>":1669,"cky</w>":1670,"cl":1671,"cla":1672,"clas":1673,"class":1674,"class</w>":1675,"classi":1676,"classroom</w>":1677,"cle":1678,"cle</w>":1679,"clean</w>":1680,"clear":1681,"clear</w>":1682,"clearly</w>":1683,"cles</w>":1684,"clever</w>":1685,"cli":1686,"click</w>":1687,"clim":1688,"climate</w>":1689,"clin":1690,"clinical</w>":1691,"clip</w>":1692,"clo":1693,"clock</w>":1694,"close</w>":1695,"closed</w>":1696,"closer</w>":1697,"clou":1698,"cloud</w>":1699,"clu":1700,"club</w>":1701,"co":1702,"co-":1703,"co2</w>":1704,"co</w>":1705,"coal</w>":1706,"coast</w>":1707,"cock":1708,"code</w>":1709,"coffee</w>":1710,"cogni":1711,"cognitive</w>":1712,"col":1713,"cold</w>":1714,"coll":1715,"collabor":1716,"collap":1717,"collapse</w>":1718,"colle":1719,"collea":1720,"colleagues</w>":1721,"collect</w>":1722,"collective</w>":1723,"college</w>":1724,"colli":1725,"color":1726,"color</w>":1727,"colors</w>":1728,"colum":1729,"com":1730,"com</w>":1731,"combin":1732,"come</w>":1733,"comes</w>":1734,"comfort":1735,"comfort</w>":1736,"comfortable</w>":1737,"coming</w>":1738,"comm":1739,"commer":1740,"commercial</w>":1741,"commit":1742,"common</w>":1743,"commun":1744,"communic":1745,"communicate</w>":1746,"communication</w>":1747,"communities</w>":1748,"community</w>":1749,"comp":1750,"compan":1751,"companies</w>":1752,"company</w>":1753,"compar":1754,"compare</w>":1755,"compared</w>":1756,"compassion</w>":1757,"compe":1758,"competi":1759,"competition</w>":1760,"comple":1761,"complete</w>":1762,"completely</w>":1763,"complex":1764,"complex</w>":1765,"complexity</w>":1766,"compli":1767,"complic":1768,"complicated</w>":1769,"compon":1770,"components</w>":1771,"compu":1772,"computer":1773,"computer</w>":1774,"computers</w>":1775,"computing</w>":1776,"con":1777,"conc":1778,"concent":1779,"concep":1780,"concept</w>":1781,"concern":1782,"concerned</w>":1783,"conclu":1784,"condi":1785,"condition</w>":1786,"conditions</w>":1787,"condu":1788,"conduc":1789,"conf":1790,"conference</w>":1791,"confi":1792,"confidence</w>":1793,"confli":1794,"conflict</w>":1795,"conne":1796,"connec":1797,"connect</w>":1798,"connected</w>":1799,"connection</w>":1800,"connections</w>":1801,"consci":1802,"conscious</w>":1803,"consciousness</w>":1804,"consequences</w>":1805,"conser":1806,"consi":1807,"consider</w>":1808,"considered</w>":1809,"const":1810,"constantly</w>":1811,"constru":1812,"construction</w>":1813,"consu":1814,"consum":1815,"consumer</w>":1816,"consumption</w>":1817,"cont":1818,"contact</w>":1819,"contain":1820,"content</w>":1821,"context</w>":1822,"contin":1823,"continent</w>":1824,"continu":1825,"continue</w>":1826,"contr":1827,"contra":1828,"contribu":1829,"contro":1830,"control</w>":1831,"controll":1832,"controlled</w>":1833,"conven":1834,"conver":1835,"conversation</w>":1836,"convin":1837,"convince</w>":1838,"convinced</w>":1839,"coo":1840,"cooking</w>":1841,"cool":1842,"cool</w>":1843,"cop":1844,"copy</w>":1845,"cor":1846,"coral</w>":1847,"core</w>":1848,"corner</w>":1849,"corpo":1850,"corruption</w>":1851,"cortex</w>":1852,"cost</w>":1853,"costs</w>":1854,"cou":1855,"could</w>":1856,"couldn</w>":1857,"coun":1858,"count</w>":1859,"counter":1860,"countries</w>":1861,"country</w>":1862,"couple</w>":1863,"cour":1864,"coura":1865,"course</w>":1866,"court</w>":1867,"cover</w>":1868,"covered</w>":1869,"cr":1870,"cra":1871,"craft</w>":1872,"crash</w>":1873,"crazy</w>":1874,"cre":1875,"crea":1876,"create</w>":1877,"created</w>":1878,"creates</w>":1879,"creating</w>":1880,"creation</w>":1881,"creative</w>":1882,"creativity</w>":1883,"creatures</w>":1884,"credit</w>":1885,"cri":1886,"crime</w>":1887,"crimin":1888,"cris":1889,"crisis</w>":1890,"critical</w>":1891,"cro":1892,"cros":1893,"cross</w>":1894,"crow":1895,"crowd</w>":1896,"cru":1897,"cs</w>":1898,"ct":1899,"ct</w>":1900,"cted</w>":1901,"cting</w>":1902,"ction</w>":1903,"ctions</w>":1904,"ctive</w>":1905,"ctly</w>":1906,"ctor</w>":1907,"cts</w>":1908,"cu":1909,"cul":1910,"cular</w>":1911,"cule</w>":1912,"cultural</w>":1913,"culture</w>":1914,"cultures</w>":1915,"cum":1916,"cur":1917,"cure</w>":1918,"curi":1919,"curious</w>":1920,"curity</w>":1921,"curr":1922,"current</w>":1923,"currently</w>":1924,"custom":1925,"cut</w>":1926,"cy":1927,"cy</w>":1928,"cyber":1929,"cycle</w>":1930,"d":1931,"d-":1932,"d.":1933,"d.</w>":1934,"d</w>":1935,"da":1936,"da</w>":1937,"dab":1938,"dabei</w>":1939,"dach</w>":1940,"dacht</w>":1941,"dachte</w>":1942,"dachten</w>":1943,"dad</w>":1944,"dadurch</w>":1945,"dafri":1946,"dafür</w>":1947,"dagegen</w>":1948,"daher</w>":1949,"dahin</w>":1950,"daily</w>":1951,"dam":1952,"dam</w>":1953,"dama":1954,"damage</w>":1955,"damals</w>":1956,"damen</w>":1957,"dameri":1958,"damit</w>":1959,"dan":1960,"dan</w>":1961,"danach</w>":1962,"dance</w>":1963,"danger":1964,"dangerous</w>":1965,"dank":1966,"dank</w>":1967,"danke</w>":1968,"danken</w>":1969,"dann</w>":1970,"dar":1971,"dar</w>":1972,"daran</w>":1973,"darauf</w>":1974,"daraus</w>":1975,"darf</w>":1976,"darin</w>":1977,"dark</w>":1978,"darstellen</w>":1979,"darum</w>":1980,"darwin</w>":1981,"darüber</w>":1982,"das":1983,"das</w>":1984,"dass</w>":1985,"dasselbe</w>":1986,"dat":1987,"data</w>":1988,"date</w>":1989,"daten":1990,"daten</w>":1991,"dation</w>":1992,"dau":1993,"dauern</w>":1994,"dauert</w>":1995,"daughter</w>":1996,"david</w>":1997,"davon</w>":1998,"davor</w>":1999,"day</w>":2000,"days</w>":2001,"dazu</w>":2002,"daß</w>":2003,"dd":2004,"dden</w>":2005,"de":2006,"de-":2007,"de</w>":2008,"dea":2009,"dead</w>":2010,"deal</w>":2011,"dealing</w>":2012,"death</w>":2013,"deb":2014,"debat":2015,"debate</w>":2016,"dec":2017,"deca":2018,"decade</w>":2019,"decades</w>":2020,"deci":2021,"decide</w>":2022,"decided</w>":2023,"decisi":2024,"decision</w>":2025,"decisions</w>":2026,"decken</w>":2027,"deckt</w>":2028,"ded</w>":2029,"dee":2030,"deep":2031,"deep</w>":2032,"deeper</w>":2033,"deeply</w>":2034,"defen":2035,"defin":2036,"define</w>":2037,"defined</w>":2038,"defini":2039,"definieren</w>":2040,"definitely</w>":2041,"definition</w>":2042,"degre":2043,"degree</w>":2044,"degrees</w>":2045,"dein</w>":2046,"deine</w>":2047,"deinen</w>":2048,"del":2049,"del</w>":2050,"deli":2051,"deliver</w>":2052,"deln</w>":2053,"dem":2054,"dem</w>":2055,"demand</w>":2056,"demo":2057,"democra":2058,"democracy</w>":2059,"democratic</w>":2060,"demokra":2061,"demokratie</w>":2062,"demon":2063,"den":2064,"den-":2065,"den</w>":2066,"dence</w>":2067,"dene</w>":2068,"denen</w>":2069,"denk":2070,"denke</w>":2071,"denken</w>":2072,"denkt</w>":2073,"denly</w>":2074,"denn</w>":2075,"dennoch</w>":2076,"dens</w>":2077,"dent":2078,"dent</w>":2079,"denten</w>":2080,"dents</w>":2081,"dep":2082,"department</w>":2083,"depen":2084,"depres":2085,"depression</w>":2086,"der":2087,"der</w>":2088,"dere</w>":2089,"dered</w>":2090,"derek</w>":2091,"deren</w>":2092,"derer</w>":2093,"dern</w>":2094,"ders</w>":2095,"dership</w>":2096,"derzeit</w>":2097,"des":2098,"des</w>":2099,"descri":2100,"describe</w>":2101,"described</w>":2102,"deser":2103,"desert</w>":2104,"deshalb</w>":2105,"desig":2106,"design</w>":2107,"designed</w>":2108,"designer</w>":2109,"designers</w>":2110,"designing</w>":2111,"designs</w>":2112,"desire</w>":2113,"despite</w>":2114,"dessen</w>":2115,"dest":2116,"dest</w>":2117,"desto</w>":2118,"destro":2119,"destru":2120,"deswegen</w>":2121,"det":2122,"det</w>":2123,"deta":2124,"detail</w>":2125,"details</w>":2126,"dete":2127,"dete</w>":2128,"deten</w>":2129,"deter":2130,"determin":2131,"deu":2132,"deut":2133,"deutlich</w>":2134,"deutsch":2135,"devel":2136,"develop":2137,"develop</w>":2138,"developed</w>":2139,"developing</w>":2140,"development</w>":2141,"device</w>":2142,"devices</w>":2143,"dge</w>":2144,"dh</w>":2145,"di":2146,"di</w>":2147,"dia</w>":2148,"diab":2149,"diabetes</w>":2150,"diag":2151,"diagno":2152,"diagra":2153,"diagramm</w>":2154,"dialo":2155,"diam":2156,"dic":2157,"dich</w>":2158,"dicht</w>":2159,"dichte</w>":2160,"did</w>":2161,"didn</w>":2162,"die":2163,"die</w>":2164,"died</w>":2165,"diejenigen</w>":2166,"dien":2167,"dienen</w>":2168,"dienst":2169,"dienst</w>":2170,"dient</w>":2171,"dieren</w>":2172,"diert</w>":2173,"dies":2174,"dies</w>":2175,"diese</w>":2176,"diesel":2177,"dieselbe</w>":2178,"diesem</w>":2179,"diesen</w>":2180,"dieser</w>":2181,"dieses</w>":2182,"diet</w>":2183,"diff":2184,"differ":2185,"difference</w>":2186,"differences</w>":2187,"different</w>":2188,"differently</w>":2189,"diffic":2190,"difficult</w>":2191,"dig":2192,"dig</w>":2193,"dige</w>":2194,"digen</w>":2195,"digit":2196,"digital</w>":2197,"digitale</w>":2198,"digitalen</w>":2199,"digkeit</w>":2200,"digt</w>":2201,"digung</w>":2202,"dile":2203,"dimen":2204,"dimensi":2205,"dimension":2206,"dimension</w>":2207,"dimensional</w>":2208,"dimensionen</w>":2209,"dimensions</w>":2210,"din":2211,"ding</w>":2212,"dinge</w>":2213,"dingen</w>":2214,"dings</w>":2215,"dinner</w>":2216,"dinosau":2217,"dinosaurier</w>":2218,"dinosaurs</w>":2219,"dio":2220,"diplo":2221,"dir":2222,"dir</w>":2223,"dire":2224,"direc":2225,"direct</w>":2226,"direction</w>":2227,"directly</w>":2228,"director</w>":2229,"direkt</w>":2230,"dis":2231,"disappe":2232,"disaster</w>":2233,"disc":2234,"dische</w>":2235,"dischen</w>":2236,"disci":2237,"discipl":2238,"disco":2239,"discover</w>":2240,"discovered</w>":2241,"discovery</w>":2242,"discus":2243,"dise":2244,"disease</w>":2245,"diseases</w>":2246,"disku":2247,"diskus":2248,"diskussion</w>":2249,"display</w>":2250,"dist":2251,"distance</w>":2252,"distin":2253,"distri":2254,"distribu":2255,"distribution</w>":2256,"diszi":2257,"dit</w>":2258,"dium</w>":2259,"diver":2260,"diversity</w>":2261,"divi":2262,"dlich</w>":2263,"dliche</w>":2264,"dlichen</w>":2265,"dly</w>":2266,"dn":2267,"dn</w>":2268,"dna-":2269,"dna</w>":2270,"dness</w>":2271,"dnis</w>":2272,"dnung</w>":2273,"do":2274,"do</w>":2275,"doc":2276,"doch</w>":2277,"doctor</w>":2278,"doctors</w>":2279,"docum":2280,"does</w>":2281,"doesn</w>":2282,"dog</w>":2283,"dogs</w>":2284,"doing</w>":2285,"dok":2286,"doku":2287,"dol":2288,"doll":2289,"dollar</w>":2290,"dollars</w>":2291,"dolph":2292,"dom":2293,"dom</w>":2294,"domin":2295,"don":2296,"don</w>":2297,"done</w>":2298,"door</w>":2299,"dop":2300,"dopp":2301,"doppelt</w>":2302,"dor":2303,"dorf</w>":2304,"dort</w>":2305,"dorthin</w>":2306,"dots</w>":2307,"dou":2308,"double</w>":2309,"dow":2310,"dow</w>":2311,"down":2312,"down</w>":2313,"dows</w>":2314,"dp</w>":2315,"dr":2316,"dr.</w>":2317,"dra":2318,"dran</w>":2319,"draußen</w>":2320,"draw</w>":2321,"drawing</w>":2322,"dre":2323,"dream</w>":2324,"dreams</w>":2325,"drehen</w>":2326,"dreht</w>":2327,"drei":2328,"drei</w>":2329,"dri":2330,"drin":2331,"drin</w>":2332,"drink</w>":2333,"dritt":2334,"dritte</w>":2335,"drittel</w>":2336,"dritten</w>":2337,"drive</w>":2338,"driven</w>":2339,"driver</w>":2340,"driving</w>":2341,"dro":2342,"drop</w>":2343,"dru":2344,"druck":2345,"druck</w>":2346,"drug</w>":2347,"drugs</w>":2348,"dry</w>":2349,"drän":2350,"drü":2351,"drüben</w>":2352,"drück":2353,"drücken</w>":2354,"drückt</w>":2355,"ds</w>":2356,"du":2357,"du</w>":2358,"duc":2359,"duced</w>":2360,"due</w>":2361,"dul":2362,"dun":2363,"dung</w>":2364,"dungen</w>":2365,"dungs":2366,"dunkel":2367,"dunkl":2368,"dunkle</w>":2369,"dur":2370,"durch":2371,"durch</w>":2372,"durchgeführt</w>":2373,"durchschnitt":2374,"durchschnittliche</w>":2375,"during</w>":2376,"dutz":2377,"dy":2378,"dy</w>":2379,"dying</w>":2380,"dynam":2381,"dynamic</w>":2382,"dä":2383,"däch":2384,"dün":2385,"dür":2386,"dürfen</w>":2387,"e":2388,"e-":2389,"e</w>":2390,"each</w>":2391,"ear":2392,"ear</w>":2393,"earli":2394,"earlier</w>":2395,"early</w>":2396,"earth":2397,"earth</w>":2398,"easi":2399,"easier</w>":2400,"easily</w>":2401,"east</w>":2402,"eastern</w>":2403,"easy</w>":2404,"eat</w>":2405,"eating</w>":2406,"eben":2407,"eben</w>":2408,"ebene</w>":2409,"ebenen</w>":2410,"ebenfalls</w>":2411,"ebenso</w>":2412,"ec":2413,"ech":2414,"echn":2415,"echt</w>":2416,"echte</w>":2417,"echten</w>":2418,"echtz":2419,"ecke</w>":2420,"eco":2421,"econ":2422,"econom":2423,"economic</w>":2424,"economics</w>":2425,"economy</w>":2426,"ecosystem</w>":2427,"ecu":2428,"ed":2429,"ed</w>":2430,"edge</w>":2431,"edi":2432,"eding</w>":2433,"edu":2434,"educ":2435,"education</w>":2436,"ee":2437,"ef":2438,"eff":2439,"effe":2440,"effec":2441,"effect</w>":2442,"effective</w>":2443,"effectively</w>":2444,"effects</w>":2445,"effekt</w>":2446,"effektiv</w>":2447,"effi":2448,"effici":2449,"efficiency</w>":2450,"efficient</w>":2451,"effizi":2452,"effort</w>":2453,"efully</w>":2454,"eg":2455,"egal</w>":2456,"ehe":2457,"ehen</w>":2458,"eher</w>":2459,"ehr":2460,"ehrlich</w>":2461,"ei":2462,"ei</w>":2463,"eicht</w>":2464,"eig":2465,"eigen":2466,"eigene</w>":2467,"eigenen</w>":2468,"eigenes</w>":2469,"eigenschaften</w>":2470,"eigent":2471,"eigentlich</w>":2472,"eight</w>":2473,"eil</w>":2474,"ein":2475,"ein</w>":2476,"einander":2477,"einander</w>":2478,"eindeu":2479,"eindruck</w>":2480,"eine</w>":2481,"einem</w>":2482,"einen</w>":2483,"einer</w>":2484,"eines</w>":2485,"einfa":2486,"einfach":2487,"einfach</w>":2488,"einfache</w>":2489,"einfachen</w>":2490,"einfacher</w>":2491,"einfaches</w>":2492,"einfl":2493,"einflus":2494,"einfluss</w>":2495,"eing</w>":2496,"einge":2497,"eingesetzt</w>":2498,"einhalb</w>":2499,"einheit</w>":2500,"einige</w>":2501,"einigen</w>":2502,"einiger</w>":2503,"einiges</w>":2504,"einkommen</w>":2505,"einmal</w>":2506,"einrichtungen</w>":2507,"eins</w>":2508,"einsatz</w>":2509,"einsetzen</w>":2510,"einstein</w>":2511,"einzel":2512,"einzelne</w>":2513,"einzelnen</w>":2514,"einzi":2515,"einzigarti":2516,"einzige</w>":2517,"einzigen</w>":2518,"einzu":2519,"eis":2520,"eis</w>":2521,"eit</w>":2522,"either</w>":2523,"ek":2524,"ek</w>":2525,"el":2526,"el</w>":2527,"ela</w>":2528,"eland</w>":2529,"ele":2530,"ele</w>":2531,"elec":2532,"electr":2533,"electri":2534,"electric</w>":2535,"electrical</w>":2536,"electricity</w>":2537,"electro":2538,"elegan":2539,"elek":2540,"elektr":2541,"elektri":2542,"elektrizität</w>":2543,"elektro":2544,"elektron":2545,"element":2546,"element</w>":2547,"elemente</w>":2548,"elements</w>":2549,"eleph":2550,"eler":2551,"eless</w>":2552,"elet":2553,"eli":2554,"elimin":2555,"eline</w>":2556,"ell":2557,"ell</w>":2558,"elle</w>":2559,"ellen</w>":2560,"eller</w>":2561,"elles</w>":2562,"elli":2563,"elling</w>":2564,"ells</w>":2565,"eln</w>":2566,"els</w>":2567,"else</w>":2568,"elt</w>":2569,"elte</w>":2570,"elten</w>":2571,"eltern</w>":2572,"ely</w>":2573,"em":2574,"em</w>":2575,"email</w>":2576,"embar":2577,"ember</w>":2578,"embra":2579,"ement":2580,"ement</w>":2581,"ements</w>":2582,"emer":2583,"emergen":2584,"emerging</w>":2585,"emis":2586,"emissions</w>":2587,"emo":2588,"emotion":2589,"emotion</w>":2590,"emotional</w>":2591,"emotionen</w>":2592,"emotions</w>":2593,"emp":2594,"empfin":2595,"emplo":2596,"employe":2597,"employees</w>":2598,"empty</w>":2599,"en":2600,"en-":2601,"en</w>":2602,"ence</w>":2603,"enced</w>":2604,"ences</w>":2605,"encoura":2606,"ency</w>":2607,"end":2608,"end</w>":2609,"ende</w>":2610,"ended</w>":2611,"enden</w>":2612,"ender</w>":2613,"endes</w>":2614,"endet</w>":2615,"endlich</w>":2616,"ends</w>":2617,"ene":2618,"ene</w>":2619,"enen</w>":2620,"ener":2621,"energ":2622,"energi":2623,"energie":2624,"energie</w>":2625,"energy</w>":2626,"eness</w>":2627,"enever</w>":2628,"eng":2629,"enga":2630,"engage</w>":2631,"engagement</w>":2632,"engine":2633,"engine</w>":2634,"engineer</w>":2635,"engineering</w>":2636,"engineers</w>":2637,"engl":2638,"england</w>":2639,"engli":2640,"englisch</w>":2641,"english</w>":2642,"ength</w>":2643,"enheit</w>":2644,"ening</w>":2645,"enjo":2646,"enjoy</w>":2647,"enor":2648,"enorme</w>":2649,"enormous</w>":2650,"enough</w>":2651,"ens":2652,"ens</w>":2653,"ent":2654,"ent</w>":2655,"entation</w>":2656,"entde":2657,"entdeck":2658,"entdecken</w>":2659,"entdeckt</w>":2660,"entdeckte</w>":2661,"entdeckung</w>":2662,"ente</w>":2663,"ented</w>":2664,"enten</w>":2665,"enter":2666,"enter</w>":2667,"entertain":2668,"entfer":2669,"entfern":2670,"entfernen</w>":2671,"entfernt</w>":2672,"enth":2673,"enti":2674,"enting</w>":2675,"entire</w>":2676,"entirely</w>":2677,"entlang</w>":2678,"entlich</w>":2679,"ently</w>":2680,"entre":2681,"entrepr":2682,"entreprene":2683,"entrop":2684,"ents</w>":2685,"entsch":2686,"entschei":2687,"entscheiden":2688,"entscheiden</w>":2689,"entscheidung</w>":2690,"entscheidungen</w>":2691,"entschied</w>":2692,"entschieden</w>":2693,"entschul":2694,"entspricht</w>":2695,"entstand</w>":2696,"entstanden</w>":2697,"entstehen</w>":2698,"entsteht</w>":2699,"entweder</w>":2700,"entwerfen</w>":2701,"entwick":2702,"entwickeln</w>":2703,"entwickelt</w>":2704,"entwickelte</w>":2705,"entwickelten</w>":2706,"entwickl":2707,"entwicklung</w>":2708,"entwicklungs":2709,"entwicklungsländern</w>":2710,"entworfen</w>":2711,"environ":2712,"environment</w>":2713,"environmental</w>":2714,"environments</w>":2715,"enz":2716,"enz</w>":2717,"enzy":2718,"ep":2719,"ep</w>":2720,"epi":2721,"epide":2722,"epidemic</w>":2723,"eping</w>":2724,"equ":2725,"equal</w>":2726,"equi":2727,"equipment</w>":2728,"equivalent</w>":2729,"er":2730,"er-":2731,"er</w>":2732,"era</w>":2733,"erd":2734,"erde</w>":2735,"ere</w>":2736,"ered</w>":2737,"ereig":2738,"eren</w>":2739,"erende</w>":2740,"erenden</w>":2741,"erer</w>":2742,"eres</w>":2743,"erfahr":2744,"erfahren</w>":2745,"erfahrung</w>":2746,"erfahrungen</w>":2747,"erfin":2748,"erfinden</w>":2749,"erfindung</w>":2750,"erfol":2751,"erfolg</w>":2752,"erfolgrei":2753,"erfolgreich</w>":2754,"erforsch":2755,"erforschen</w>":2756,"erfunden</w>":2757,"erfü":2758,"ergeb":2759,"ergebnis</w>":2760,"ergebnisse</w>":2761,"erhalten</w>":2762,"erhält</w>":2763,"erhö":2764,"eri":2765,"eric</w>":2766,"erin</w>":2767,"ering</w>":2768,"erinn":2769,"erinnere</w>":2770,"erinnern</w>":2771,"erinnert</w>":2772,"erkan":2773,"erkannt</w>":2774,"erkannte</w>":2775,"erken":2776,"erkenn":2777,"erkennen</w>":2778,"erkennt</w>":2779,"erkenntnis</w>":2780,"erklär":2781,"erklären</w>":2782,"erklärt</w>":2783,"erklärung</w>":2784,"erkrank":2785,"erlau":2786,"erlaub":2787,"erlauben</w>":2788,"erlaubt</w>":2789,"erle":2790,"erleb":2791,"erleben</w>":2792,"erlebt</w>":2793,"ermu":2794,"ermög":2795,"ermöglichen</w>":2796,"ermöglicht</w>":2797,"ern":2798,"ern</w>":2799,"erneu":2800,"ernst</w>":2801,"ernsth":2802,"ernsthaf":2803,"ernt</w>":2804,"ernä":2805,"ernähr":2806,"ernährung</w>":2807,"ero":2808,"errei":2809,"erreichen</w>":2810,"erreicht</w>":2811,"ers</w>":2812,"erschaffen</w>":2813,"erscheinen</w>":2814,"erscheint</w>":2815,"erseits</w>":2816,"ersetzen</w>":2817,"erst":2818,"erst</w>":2819,"ersta":2820,"erstaun":2821,"erstaunlich</w>":2822,"erstaunliche</w>":2823,"erste</w>":2824,"erstellen</w>":2825,"erstellt</w>":2826,"ersten</w>":2827,"erstens</w>":2828,"erster</w>":2829,"erstes</w>":2830,"ert</w>":2831,"erte</w>":2832,"erten</w>":2833,"erter</w>":2834,"ertes</w>":2835,"erung</w>":2836,"erungen</w>":2837,"erungs":2838,"erwachsen":2839,"erwachsene</w>":2840,"erwachsenen</w>":2841,"erwar":2842,"erwarten</w>":2843,"erwartet</w>":2844,"erwei":2845,"erweise</w>":2846,"erweiter":2847,"erwä":2848,"erwähnt</w>":2849,"ery</w>":2850,"erzeugen</w>":2851,"erzeugt</w>":2852,"erzä":2853,"erzähl":2854,"erzähle</w>":2855,"erzählen</w>":2856,"erzählt</w>":2857,"erzählte</w>":2858,"es":2859,"es</w>":2860,"ese</w>":2861,"esen</w>":2862,"esn</w>":2863,"espe":2864,"especially</w>":2865,"ess":2866,"ess</w>":2867,"esse</w>":2868,"essed</w>":2869,"essen":2870,"essen</w>":2871,"essential</w>":2872,"essentially</w>":2873,"esses</w>":2874,"essi":2875,"ession</w>":2876,"est":2877,"est</w>":2878,"establi":2879,"esti":2880,"ests</w>":2881,"et":2882,"et</w>":2883,"etc</w>":2884,"etes</w>":2885,"eth":2886,"eth</w>":2887,"eting</w>":2888,"ets</w>":2889,"ette</w>":2890,"etwa</w>":2891,"etwas</w>":2892,"etz</w>":2893,"eu":2894,"euch</w>":2895,"euer</w>":2896,"eur":2897,"eure</w>":2898,"euro":2899,"europ":2900,"europa</w>":2901,"europe":2902,"europe</w>":2903,"european</w>":2904,"europä":2905,"ev":2906,"even</w>":2907,"event":2908,"event</w>":2909,"events</w>":2910,"eventually</w>":2911,"ever":2912,"ever</w>":2913,"every":2914,"every</w>":2915,"everybody</w>":2916,"everyday</w>":2917,"everyone</w>":2918,"everything</w>":2919,"everywhere</w>":2920,"evi":2921,"evidence</w>":2922,"evil</w>":2923,"evol":2924,"evolution":2925,"evolution</w>":2926,"evolutionary</w>":2927,"evolved</w>":2928,"ewi":2929,"ex":2930,"exac":2931,"exactly</w>":2932,"exam":2933,"example</w>":2934,"examples</w>":2935,"exc":2936,"except</w>":2937,"exchange</w>":2938,"excited</w>":2939,"exciting</w>":2940,"exer":2941,"exhi":2942,"exi":2943,"exist":2944,"exist</w>":2945,"existence</w>":2946,"existi":2947,"existieren</w>":2948,"existiert</w>":2949,"exists</w>":2950,"exp":2951,"expan":2952,"expe":2953,"expec":2954,"expect</w>":2955,"expected</w>":2956,"expedi":2957,"expen":2958,"expensive</w>":2959,"exper":2960,"experi":2961,"experience</w>":2962,"experienced</w>":2963,"experiences</w>":2964,"experim":2965,"experiment":2966,"experiment</w>":2967,"experimente</w>":2968,"experiments</w>":2969,"experten</w>":2970,"experts</w>":2971,"expl":2972,"expla":2973,"explain</w>":2974,"explains</w>":2975,"explan":2976,"explo":2977,"explor":2978,"exploration</w>":2979,"explore</w>":2980,"explosion</w>":2981,"expon":2982,"exponenti":2983,"expres":2984,"express</w>":2985,"expression</w>":2986,"exten":2987,"extin":2988,"extra":2989,"extra</w>":2990,"extraordinary</w>":2991,"extre":2992,"extrem":2993,"extrem</w>":2994,"extreme</w>":2995,"extremely</w>":2996,"ey</w>":2997,"eye</w>":2998,"eyes</w>":2999,"f":3000,"f-":3001,"f</w>":3002,"fa":3003,"fab":3004,"fabri":3005,"fabrik</w>":3006,"fac":3007,"face":3008,"face</w>":3009,"facebook</w>":3010,"faces</w>":3011,"fach":3012,"facili":3013,"facing</w>":3014,"fact</w>":3015,"factor</w>":3016,"factory</w>":3017,"facts</w>":3018,"fahr":3019,"fahr</w>":3020,"fahren</w>":3021,"fahrer</w>":3022,"fahrt</w>":3023,"fail":3024,"fail</w>":3025,"failed</w>":3026,"failure</w>":3027,"fair":3028,"fair</w>":3029,"fairly</w>":3030,"faith</w>":3031,"faktor</w>":3032,"faktoren</w>":3033,"fal":3034,"fall":3035,"fall</w>":3036,"fallen</w>":3037,"falls</w>":3038,"falsch</w>":3039,"falsche</w>":3040,"falt</w>":3041,"falten</w>":3042,"fam":3043,"famil":3044,"famili":3045,"familiar</w>":3046,"familie</w>":3047,"familien":3048,"familien</w>":3049,"families</w>":3050,"family</w>":3051,"famous</w>":3052,"fan":3053,"fan</w>":3054,"fand</w>":3055,"fanden</w>":3056,"fang</w>":3057,"fangen</w>":3058,"fanta":3059,"fantastic</w>":3060,"fantastisch</w>":3061,"far":3062,"far</w>":3063,"farbe</w>":3064,"farben</w>":3065,"farm</w>":3066,"farmer</w>":3067,"farmers</w>":3068,"fas":3069,"fascin":3070,"fascinating</w>":3071,"fashi":3072,"fashion</w>":3073,"fassen</w>":3074,"fasst</w>":3075,"fassung</w>":3076,"fast</w>":3077,"faster</w>":3078,"fasz":3079,"faszin":3080,"faszinier":3081,"fat</w>":3082,"father</w>":3083,"fau":3084,"favor":3085,"favorite</w>":3086,"fe":3087,"fe</w>":3088,"fear</w>":3089,"febru":3090,"feed":3091,"feed</w>":3092,"feedback</w>":3093,"feel":3094,"feel</w>":3095,"feeling</w>":3096,"feelings</w>":3097,"feels</w>":3098,"feet</w>":3099,"fehl":3100,"fehlen</w>":3101,"fehler</w>":3102,"fei":3103,"fein":3104,"fel":3105,"fel</w>":3106,"feld</w>":3107,"felder</w>":3108,"fell</w>":3109,"fellow</w>":3110,"felt</w>":3111,"female</w>":3112,"fen":3113,"fen</w>":3114,"fenster</w>":3115,"fer":3116,"fer</w>":3117,"ference</w>":3118,"fern":3119,"fern</w>":3120,"fernseh":3121,"fernsehen</w>":3122,"fert</w>":3123,"ferti":3124,"fertig</w>":3125,"fes":3126,"fest":3127,"fest</w>":3128,"festi":3129,"feststellen</w>":3130,"fett":3131,"feu":3132,"feuer":3133,"feuer</w>":3134,"few</w>":3135,"fewer</w>":3136,"ff":3137,"ff</w>":3138,"ffe":3139,"ffe</w>":3140,"ffee</w>":3141,"ffen</w>":3142,"fft</w>":3143,"fi":3144,"fic":3145,"fic</w>":3146,"fically</w>":3147,"fication</w>":3148,"ficial</w>":3149,"fie</w>":3150,"fied</w>":3151,"fiel":3152,"fiel</w>":3153,"field</w>":3154,"fields</w>":3155,"fif":3156,"fig":3157,"fig</w>":3158,"figh":3159,"fight</w>":3160,"fighting</w>":3161,"figu":3162,"figure</w>":3163,"figured</w>":3164,"fil":3165,"fill</w>":3166,"filled</w>":3167,"film":3168,"film</w>":3169,"filme</w>":3170,"films</w>":3171,"filter</w>":3172,"fin":3173,"final</w>":3174,"finally</w>":3175,"finan":3176,"financial</w>":3177,"finanz":3178,"finanzi":3179,"find</w>":3180,"finde</w>":3181,"finden</w>":3182,"findet</w>":3183,"finding</w>":3184,"fine</w>":3185,"fing":3186,"fing</w>":3187,"fingen</w>":3188,"finger</w>":3189,"finish</w>":3190,"finished</w>":3191,"fir":3192,"fire":3193,"fire</w>":3194,"firma</w>":3195,"firmen</w>":3196,"first</w>":3197,"fis":3198,"fisch":3199,"fisch</w>":3200,"fische</w>":3201,"fischen</w>":3202,"fish</w>":3203,"fishing</w>":3204,"fit":3205,"fit</w>":3206,"five-":3207,"five</w>":3208,"fix":3209,"fix</w>":3210,"fizieren</w>":3211,"fiziert</w>":3212,"fl":3213,"fla":3214,"flas":3215,"flat</w>":3216,"fle":3217,"flei":3218,"fleisch</w>":3219,"flexi":3220,"fli":3221,"flie":3222,"fliegen</w>":3223,"flies</w>":3224,"flight</w>":3225,"flo":3226,"floor</w>":3227,"flori":3228,"florida</w>":3229,"flow</w>":3230,"flu":3231,"flu</w>":3232,"flug":3233,"flug</w>":3234,"flugzeug</w>":3235,"fluss</w>":3236,"fly</w>":3237,"flying</w>":3238,"flä":3239,"fläche</w>":3240,"flächen</w>":3241,"flü":3242,"flüs":3243,"fo":3244,"foc":3245,"focus</w>":3246,"focused</w>":3247,"fol":3248,"fold</w>":3249,"folge</w>":3250,"folgen</w>":3251,"folgende</w>":3252,"folgendes</w>":3253,"folgt</w>":3254,"folie</w>":3255,"folks</w>":3256,"follo":3257,"follow</w>":3258,"followed</w>":3259,"following</w>":3260,"food</w>":3261,"foot":3262,"foot</w>":3263,"for":3264,"for</w>":3265,"force</w>":3266,"forced</w>":3267,"forces</w>":3268,"ford</w>":3269,"forder":3270,"fordert</w>":3271,"fore":3272,"fore</w>":3273,"foreig":3274,"foreign</w>":3275,"forest</w>":3276,"forever</w>":3277,"forget</w>":3278,"form":3279,"form</w>":3280,"forma":3281,"formed</w>":3282,"formen</w>":3283,"former</w>":3284,"forming</w>":3285,"forms</w>":3286,"forsch":3287,"forschen</w>":3288,"forscher</w>":3289,"forschung</w>":3290,"forschungs":3291,"fort":3292,"fort</w>":3293,"forth</w>":3294,"fortschritt</w>":3295,"fortun":3296,"fortunately</w>":3297,"forward</w>":3298,"fossi":3299,"fossil</w>":3300,"fot":3301,"foto</w>":3302,"fotogra":3303,"fotografi":3304,"fotos</w>":3305,"foun":3306,"found</w>":3307,"foundation</w>":3308,"four":3309,"four</w>":3310,"fourth</w>":3311,"fr":3312,"fra":3313,"frag":3314,"frage</w>":3315,"fragen</w>":3316,"fragt</w>":3317,"fragte</w>":3318,"fragten</w>":3319,"frame":3320,"frame</w>":3321,"fran":3322,"francisco</w>":3323,"frank":3324,"frank</w>":3325,"franzö":3326,"frau</w>":3327,"frauen</w>":3328,"fre":3329,"free":3330,"free</w>":3331,"freedom</w>":3332,"frei":3333,"frei</w>":3334,"freien</w>":3335,"freiheit</w>":3336,"freiwilli":3337,"frem":3338,"fren":3339,"french</w>":3340,"frequ":3341,"fres":3342,"fresh</w>":3343,"freu":3344,"freude</w>":3345,"freund":3346,"freund</w>":3347,"freunde</w>":3348,"freunden</w>":3349,"freundin</w>":3350,"fri":3351,"frie":3352,"frieden":3353,"frieden</w>":3354,"friend":3355,"friend</w>":3356,"friends</w>":3357,"fro":3358,"from</w>":3359,"fron":3360,"front</w>":3361,"fru":3362,"frü":3363,"früh":3364,"früh</w>":3365,"frühen</w>":3366,"früher</w>":3367,"fs":3368,"fs</w>":3369,"ft":3370,"ft</w>":3371,"fte</w>":3372,"ften</w>":3373,"fu":3374,"fuel</w>":3375,"fuhr</w>":3376,"ful":3377,"ful</w>":3378,"full</w>":3379,"fully</w>":3380,"fun":3381,"fun</w>":3382,"func":3383,"function</w>":3384,"fund":3385,"fund</w>":3386,"fundam":3387,"fundament":3388,"fundamental</w>":3389,"funden</w>":3390,"fung</w>":3391,"funk":3392,"funktion":3393,"funktion</w>":3394,"funktionieren</w>":3395,"funktioniert</w>":3396,"funny</w>":3397,"fur":3398,"furcht":3399,"further</w>":3400,"fusion</w>":3401,"future</w>":3402,"fuß":3403,"fuß</w>":3404,"fy</w>":3405,"fying</w>":3406,"fä":3407,"fähi":3408,"fähig</w>":3409,"fähigkeit</w>":3410,"fähigkeiten</w>":3411,"fährt</w>":3412,"fäl":3413,"fälle</w>":3414,"fällen</w>":3415,"fällt</w>":3416,"fän":3417,"fäng":3418,"fängt</w>":3419,"för":3420,"förder":3421,"fördern</w>":3422,"fü":3423,"fügen</w>":3424,"fühl":3425,"fühle</w>":3426,"fühlen</w>":3427,"fühlt</w>":3428,"fühlte</w>":3429,"führ":3430,"führen</w>":3431,"führer</w>":3432,"führt</w>":3433,"führte</w>":3434,"führten</w>":3435,"führung</w>":3436,"füllen</w>":3437,"fün":3438,"fünf":3439,"fünf</w>":3440,"für":3441,"für</w>":3442,"g":3443,"g-":3444,"g</w>":3445,"ga":3446,"ga</w>":3447,"gab":3448,"gab</w>":3449,"gabe</w>":3450,"gaben</w>":3451,"gain</w>":3452,"gal":3453,"gala":3454,"galax":3455,"galaxi":3456,"galaxie</w>":3457,"galaxien</w>":3458,"galaxies</w>":3459,"galaxy</w>":3460,"gall":3461,"gam":3462,"game</w>":3463,"games</w>":3464,"gan":3465,"gan</w>":3466,"gand":3467,"gang</w>":3468,"gangen</w>":3469,"ganz</w>":3470,"ganze</w>":3471,"ganzen</w>":3472,"ganzes</w>":3473,"gap</w>":3474,"gar":3475,"gar</w>":3476,"garage</w>":3477,"garden</w>":3478,"garten</w>":3479,"garti":3480,"gas":3481,"gas</w>":3482,"gat":3483,"gate</w>":3484,"gates</w>":3485,"gather":3486,"gation</w>":3487,"gave</w>":3488,"gay</w>":3489,"ge":3490,"ge-":3491,"ge</w>":3492,"gearbeitet</w>":3493,"geb":3494,"gebaut</w>":3495,"gebe</w>":3496,"geben</w>":3497,"geber</w>":3498,"gebeten</w>":3499,"gebie":3500,"gebiet</w>":3501,"gebiete</w>":3502,"gebieten</w>":3503,"geboren</w>":3504,"gebra":3505,"gebracht</w>":3506,"gebro":3507,"gebur":3508,"geburt":3509,"geburt</w>":3510,"gebäu":3511,"gebäude</w>":3512,"ged</w>":3513,"gedacht</w>":3514,"gedanke</w>":3515,"gedanken</w>":3516,"gefahr</w>":3517,"gefahren</w>":3518,"gefallen</w>":3519,"gefragt</w>":3520,"gefunden</w>":3521,"gefä":3522,"gefähr":3523,"gefährlich</w>":3524,"gefällt</w>":3525,"gefäng":3526,"gefängnis</w>":3527,"gefü":3528,"gefühl</w>":3529,"gefühle</w>":3530,"geführt</w>":3531,"geg":3532,"gegangen</w>":3533,"gegeben</w>":3534,"gegen":3535,"gegen</w>":3536,"gegend</w>":3537,"gegensatz</w>":3538,"gegensei":3539,"gegent":3540,"gegenteil</w>":3541,"gegenwart</w>":3542,"gegenwär":3543,"gegenüber</w>":3544,"gegründet</w>":3545,"geh":3546,"gehabt</w>":3547,"gehalten</w>":3548,"gehe</w>":3549,"gehei":3550,"geheim":3551,"geheimnis</w>":3552,"gehen</w>":3553,"gehir":3554,"gehirn":3555,"gehirn</w>":3556,"gehirne</w>":3557,"gehirns</w>":3558,"geht</w>":3559,"gehören</w>":3560,"gehört</w>":3561,"gei":3562,"geist</w>":3563,"gekommen</w>":3564,"gel":3565,"gel</w>":3566,"geladen</w>":3567,"gelan":3568,"gelangen</w>":3569,"gelassen</w>":3570,"geld":3571,"geld</w>":3572,"gele":3573,"gelebt</w>":3574,"gelegenheit</w>":3575,"gelegt</w>":3576,"gelei":3577,"gelen":3578,"gelernt</w>":3579,"gelesen</w>":3580,"geln</w>":3581,"gely</w>":3582,"gelö":3583,"gelöst</w>":3584,"gem":3585,"gem</w>":3586,"gemacht</w>":3587,"gemein":3588,"gemeinde</w>":3589,"gemeinden</w>":3590,"gemeinsam</w>":3591,"gemeinsame</w>":3592,"gemeinschaft</w>":3593,"gemeinschaften</w>":3594,"gement</w>":3595,"gemäl":3596,"gemü":3597,"gen":3598,"gen</w>":3599,"genan":3600,"genannt</w>":3601,"genau":3602,"genau</w>":3603,"genauer</w>":3604,"genauso</w>":3605,"gend":3606,"gend</w>":3607,"gende</w>":3608,"genden</w>":3609,"gender</w>":3610,"gendes</w>":3611,"gene":3612,"gene</w>":3613,"geneh":3614,"genen</w>":3615,"gener":3616,"general</w>":3617,"generally</w>":3618,"generate</w>":3619,"generation</w>":3620,"generationen</w>":3621,"generations</w>":3622,"genes</w>":3623,"genetic</w>":3624,"genheit</w>":3625,"geni":3626,"genie":3627,"geno":3628,"genom":3629,"genom</w>":3630,"genome</w>":3631,"genommen</w>":3632,"gens</w>":3633,"gent":3634,"gent</w>":3635,"gentle":3636,"genu":3637,"genug</w>":3638,"genutzt</w>":3639,"genü":3640,"geogra":3641,"geome":3642,"geor":3643,"george</w>":3644,"ger":3645,"ger</w>":3646,"gerade</w>":3647,"gere":3648,"gere</w>":3649,"gerechtigkeit</w>":3650,"geregt</w>":3651,"gerei":3652,"geri":3653,"geria</w>":3654,"gering":3655,"germany</w>":3656,"gern</w>":3657,"gerne</w>":3658,"gers</w>":3659,"geru":3660,"gerung</w>":3661,"gery</w>":3662,"gerä":3663,"gerät</w>":3664,"geräte</w>":3665,"geräu":3666,"geräusche</w>":3667,"gerü":3668,"ges":3669,"ges</w>":3670,"gesagt</w>":3671,"gesam":3672,"gesamte</w>":3673,"gesamten</w>":3674,"gesch":3675,"geschaff":3676,"geschaffen</w>":3677,"geschafft</w>":3678,"geschah</w>":3679,"geschehen</w>":3680,"geschen":3681,"geschi":3682,"geschichte</w>":3683,"geschichten</w>":3684,"geschickt</w>":3685,"geschie":3686,"geschieht</w>":3687,"geschlagen</w>":3688,"geschle":3689,"geschlossen</w>":3690,"geschma":3691,"geschrieben</w>":3692,"geschw":3693,"geschwindi":3694,"geschwindigkeit</w>":3695,"geschä":3696,"geschäf":3697,"geschäft</w>":3698,"geschäfts":3699,"geschü":3700,"gese":3701,"gesehen</w>":3702,"gesell":3703,"gesellschaft":3704,"gesellschaft</w>":3705,"gesellschaften</w>":3706,"gesetz":3707,"gesetz</w>":3708,"gesetze</w>":3709,"gesetzt</w>":3710,"gesi":3711,"gesicht</w>":3712,"gesichter</w>":3713,"gesp":3714,"gespi":3715,"gespielt</w>":3716,"gespro":3717,"gesprochen</w>":3718,"gesprä":3719,"gespräch</w>":3720,"gessen</w>":3721,"gest":3722,"gest</w>":3723,"gestal":3724,"gestalten</w>":3725,"gestellt</w>":3726,"gestern</w>":3727,"gestorben</w>":3728,"gesund":3729,"gesund</w>":3730,"gesundheit</w>":3731,"gesundheits":3732,"gesundheitswesen</w>":3733,"get</w>":3734,"getan</w>":3735,"getroffen</w>":3736,"gets</w>":3737,"getting</w>":3738,"getötet</w>":3739,"gew":3740,"gewal":3741,"gewalt</w>":3742,"gewand":3743,"gewe":3744,"gewebe</w>":3745,"gewesen</w>":3746,"gewi":3747,"gewicht</w>":3748,"gewinn":3749,"gewinnen</w>":3750,"gewis":3751,"gewisse</w>":3752,"gewissen</w>":3753,"gewohn":3754,"gewonnen</w>":3755,"geworden</w>":3756,"gewä":3757,"gewöhn":3758,"gezeigt</w>":3759,"gezogen</w>":3760,"geändert</w>":3761,"gh":3762,"gh</w>":3763,"ghana</w>":3764,"ght":3765,"ght-":3766,"ght</w>":3767,"ghter</w>":3768,"ghtly</w>":3769,"ghts</w>":3770,"gi":3771,"giant</w>":3772,"gibt</w>":3773,"gic</w>":3774,"gical</w>":3775,"gie</w>":3776,"gieren</w>":3777,"gif":3778,"gift</w>":3779,"gil":3780,"gilt</w>":3781,"ging</w>":3782,"gingen</w>":3783,"gir":3784,"girl</w>":3785,"girls</w>":3786,"git":3787,"give</w>":3788,"given</w>":3789,"gives</w>":3790,"giving</w>":3791,"gkeit</w>":3792,"gkeiten</w>":3793,"gl":3794,"gla":3795,"glam":3796,"glamour</w>":3797,"glas":3798,"glas</w>":3799,"glass</w>":3800,"glau":3801,"glaub":3802,"glaube</w>":3803,"glauben</w>":3804,"glaubt</w>":3805,"gle</w>":3806,"glei":3807,"gleich":3808,"gleich</w>":3809,"gleiche</w>":3810,"gleichen</w>":3811,"gleichheit</w>":3812,"gleichzeitig</w>":3813,"gles</w>":3814,"gli":3815,"glich</w>":3816,"gliche</w>":3817,"glichen</w>":3818,"gling</w>":3819,"glo":3820,"glob":3821,"global</w>":3822,"globale</w>":3823,"globalen</w>":3824,"glü":3825,"glück":3826,"glück</w>":3827,"glücklich</w>":3828,"glücklicherweise</w>":3829,"gment</w>":3830,"gni":3831,"go":3832,"go</w>":3833,"goal</w>":3834,"goals</w>":3835,"god</w>":3836,"goes</w>":3837,"going</w>":3838,"gol":3839,"gold":3840,"gold</w>":3841,"golf</w>":3842,"gon":3843,"gone</w>":3844,"goo":3845,"good</w>":3846,"goods</w>":3847,"goog":3848,"google</w>":3849,"gor":3850,"gore</w>":3851,"gos</w>":3852,"got":3853,"got</w>":3854,"goti":3855,"gott</w>":3856,"gotten</w>":3857,"gover":3858,"govern":3859,"government</w>":3860,"governments</w>":3861,"gps</w>":3862,"gr":3863,"gra":3864,"grab":3865,"graben</w>":3866,"grad</w>":3867,"grade</w>":3868,"gradu":3869,"graduate</w>":3870,"grafi":3871,"grain</w>":3872,"gramm</w>":3873,"gran":3874,"grand":3875,"grand</w>":3876,"grandmother</w>":3877,"graph":3878,"graph</w>":3879,"graphi":3880,"graphic</w>":3881,"gras":3882,"gras</w>":3883,"grau":3884,"gravi":3885,"gravity</w>":3886,"gre":3887,"great":3888,"great</w>":3889,"greater</w>":3890,"greatest</w>":3891,"green":3892,"green</w>":3893,"grei":3894,"greif":3895,"greifen</w>":3896,"gren":3897,"grenze</w>":3898,"grenzen</w>":3899,"gress</w>":3900,"gressi":3901,"grew</w>":3902,"gri":3903,"grid</w>":3904,"griff</w>":3905,"gro":3906,"gross":3907,"grosse</w>":3908,"grou":3909,"ground</w>":3910,"group</w>":3911,"groups</w>":3912,"grow":3913,"grow</w>":3914,"growing</w>":3915,"grown</w>":3916,"growth</w>":3917,"groß":3918,"groß</w>":3919,"großarti":3920,"großartig</w>":3921,"großartige</w>":3922,"großartigen</w>":3923,"großbritan":3924,"großbritannien</w>":3925,"große</w>":3926,"großen</w>":3927,"großer</w>":3928,"großes</w>":3929,"großmutter</w>":3930,"großteil</w>":3931,"grund":3932,"grund</w>":3933,"grunde</w>":3934,"grundlage</w>":3935,"grundle":3936,"grundlegende</w>":3937,"grundsä":3938,"grundsätzlich</w>":3939,"grupp":3940,"gruppe</w>":3941,"gruppen</w>":3942,"gry</w>":3943,"grö":3944,"größ":3945,"größe</w>":3946,"größer</w>":3947,"größere</w>":3948,"größeren</w>":3949,"größte</w>":3950,"größten</w>":3951,"grü":3952,"grün":3953,"grün</w>":3954,"gründe</w>":3955,"gründen</w>":3956,"gründet</w>":3957,"grüne</w>":3958,"grünen</w>":3959,"gs":3960,"gs</w>":3961,"gst</w>":3962,"gste</w>":3963,"gsten</w>":3964,"gt</w>":3965,"gte</w>":3966,"gten</w>":3967,"gu":3968,"guar":3969,"gue</w>":3970,"gues</w>":3971,"guess</w>":3972,"gui":3973,"gul":3974,"gun</w>":3975,"gung</w>":3976,"gur":3977,"gut</w>":3978,"gute</w>":3979,"guten</w>":3980,"guter</w>":3981,"gutes</w>":3982,"guy</w>":3983,"guys</w>":3984,"gy":3985,"gyp":3986,"gä":3987,"gäbe</w>":3988,"gän":3989,"gö":3990,"gü":3991,"gün":3992,"h":3993,"h-":3994,"h</w>":3995,"ha":3996,"ha</w>":3997,"hab":3998,"hab</w>":3999,"habe</w>":4000,"haben</w>":4001,"habit":4002,"habt</w>":4003,"had</w>":4004,"hadn</w>":4005,"haf":4006,"haft</w>":4007,"hafte</w>":4008,"hai</w>":4009,"hair</w>":4010,"haiti</w>":4011,"hal":4012,"halb</w>":4013,"halbe</w>":4014,"half</w>":4015,"hall":4016,"hall</w>":4017,"hallo</w>":4018,"hallu":4019,"halt</w>":4020,"halte</w>":4021,"halten":4022,"halten</w>":4023,"haltung</w>":4024,"ham":4025,"ham</w>":4026,"han":4027,"han</w>":4028,"hand":4029,"hand</w>":4030,"handel</w>":4031,"handeln</w>":4032,"handelt</w>":4033,"handlungen</w>":4034,"hands</w>":4035,"handy</w>":4036,"hang</w>":4037,"happ":4038,"happen":4039,"happen</w>":4040,"happened</w>":4041,"happening</w>":4042,"happens</w>":4043,"happiness</w>":4044,"happy</w>":4045,"haps</w>":4046,"har":4047,"hard":4048,"hard</w>":4049,"harder</w>":4050,"harmon":4051,"hart</w>":4052,"harv":4053,"harvard</w>":4054,"has":4055,"has</w>":4056,"hasn</w>":4057,"hast</w>":4058,"hat":4059,"hat</w>":4060,"hate</w>":4061,"hatte</w>":4062,"hatten</w>":4063,"hau":4064,"haufen</w>":4065,"haup":4066,"haupt":4067,"haupt</w>":4068,"haupts":4069,"hauptsächlich</w>":4070,"haus":4071,"haus</w>":4072,"hause</w>":4073,"haut</w>":4074,"have</w>":4075,"haven</w>":4076,"having</w>":4077,"haw":4078,"he":4079,"he</w>":4080,"hea":4081,"head":4082,"head</w>":4083,"heads</w>":4084,"heal":4085,"health":4086,"health</w>":4087,"healthy</w>":4088,"hear</w>":4089,"heard</w>":4090,"hearing</w>":4091,"heart</w>":4092,"heat</w>":4093,"heavy</w>":4094,"heben</w>":4095,"hed</w>":4096,"hei":4097,"heili":4098,"heim":4099,"heim</w>":4100,"heirat":4101,"heisst</w>":4102,"heit":4103,"heit</w>":4104,"heiten</w>":4105,"heits":4106,"heißen</w>":4107,"heißt</w>":4108,"hel":4109,"held</w>":4110,"helden</w>":4111,"helfen</w>":4112,"heli":4113,"hell":4114,"hell</w>":4115,"help</w>":4116,"helped</w>":4117,"helping</w>":4118,"helps</w>":4119,"hen":4120,"hen</w>":4121,"henry</w>":4122,"her":4123,"her</w>":4124,"heran":4125,"heraus":4126,"heraus</w>":4127,"herausfinden</w>":4128,"herausforder":4129,"herausforderung</w>":4130,"herausforderungen</w>":4131,"herausgefunden</w>":4132,"herauszu":4133,"herauszufinden</w>":4134,"here</w>":4135,"hergestellt</w>":4136,"hero":4137,"hero</w>":4138,"herr":4139,"herr</w>":4140,"herren</w>":4141,"herstellen</w>":4142,"herstellung</w>":4143,"herum":4144,"herum</w>":4145,"herunter":4146,"hervor":4147,"herz":4148,"herz</w>":4149,"herzen</w>":4150,"herzustellen</w>":4151,"hes</w>":4152,"heu":4153,"heute</w>":4154,"heutigen</w>":4155,"heutzu":4156,"heutzutage</w>":4157,"hey</w>":4158,"hi":4159,"hi</w>":4160,"hidden</w>":4161,"hie":4162,"hielt</w>":4163,"hielten</w>":4164,"hier":4165,"hier</w>":4166,"hierher</w>":4167,"hig":4168,"high":4169,"high-":4170,"high</w>":4171,"higher</w>":4172,"highest</w>":4173,"highly</w>":4174,"hil":4175,"hilfe</w>":4176,"hilfs":4177,"hilft</w>":4178,"him":4179,"him</w>":4180,"himmel</w>":4181,"himself</w>":4182,"hin":4183,"hin</w>":4184,"hinaus</w>":4185,"hinder":4186,"hindern</w>":4187,"hinein":4188,"hinein</w>":4189,"hing":4190,"hing</w>":4191,"hinsicht</w>":4192,"hinten</w>":4193,"hinter":4194,"hinter</w>":4195,"hintergrund</w>":4196,"hinweg</w>":4197,"hinzu":4198,"hir":4199,"hirn":4200,"his</w>":4201,"histor":4202,"history</w>":4203,"hit":4204,"hit</w>":4205,"hits</w>":4206,"hiv-":4207,"hiv</w>":4208,"hl":4209,"hl</w>":4210,"hle</w>":4211,"hlen":4212,"hlen</w>":4213,"hlt</w>":4214,"hlte</w>":4215,"hlten</w>":4216,"hlung</w>":4217,"hm":4218,"hmen":4219,"hmen</w>":4220,"hmt</w>":4221,"hn":4222,"hn</w>":4223,"hne</w>":4224,"hnen</w>":4225,"hnt</w>":4226,"hnte</w>":4227,"hnung</w>":4228,"ho":4229,"hoch":4230,"hoch</w>":4231,"hoff":4232,"hoffe</w>":4233,"hoffen</w>":4234,"hoffentlich</w>":4235,"hoffnung</w>":4236,"hohe</w>":4237,"hohen</w>":4238,"hol":4239,"hol</w>":4240,"hold</w>":4241,"holding</w>":4242,"hole</w>":4243,"holen</w>":4244,"holes</w>":4245,"holfen</w>":4246,"holt</w>":4247,"holz</w>":4248,"hom":4249,"home":4250,"home</w>":4251,"homes</w>":4252,"homo":4253,"homo</w>":4254,"hon":4255,"honest</w>":4256,"honor</w>":4257,"hood</w>":4258,"hop":4259,"hope</w>":4260,"hopefully</w>":4261,"hor":4262,"hori":4263,"horizon":4264,"horri":4265,"horse</w>":4266,"hosp":4267,"hospit":4268,"hospital</w>":4269,"hot":4270,"hot</w>":4271,"hotel</w>":4272,"hou":4273,"hour</w>":4274,"hours</w>":4275,"house</w>":4276,"houses</w>":4277,"how</w>":4278,"howard</w>":4279,"howe":4280,"however</w>":4281,"hr":4282,"hr</w>":4283,"hre</w>":4284,"hren":4285,"hren</w>":4286,"hri":4287,"hrt</w>":4288,"ht":4289,"ht</w>":4290,"hte</w>":4291,"hu":4292,"huge</w>":4293,"hum":4294,"human":4295,"human</w>":4296,"humanity</w>":4297,"humans</w>":4298,"humor</w>":4299,"hun":4300,"hund":4301,"hund</w>":4302,"hunder":4303,"hundert</w>":4304,"hunderte</w>":4305,"hundre":4306,"hundred</w>":4307,"hundreds</w>":4308,"hung</w>":4309,"hunger</w>":4310,"hur":4311,"hurt</w>":4312,"hus":4313,"husband</w>":4314,"hy":4315,"hydro":4316,"hyper":4317,"hypo":4318,"hä":4319,"häl":4320,"hälfte</w>":4321,"hält</w>":4322,"hän":4323,"hände</w>":4324,"händen</w>":4325,"hängen</w>":4326,"hängt</w>":4327,"häre</w>":4328,"hätte</w>":4329,"hätten</w>":4330,"häu":4331,"häufig</w>":4332,"häus":4333,"häuser</w>":4334,"häusern</w>":4335,"hö":4336,"höch":4337,"höhe</w>":4338,"höher</w>":4339,"hör":4340,"höre</w>":4341,"hören</w>":4342,"hört</w>":4343,"hörte</w>":4344,"hörten</w>":4345,"hü":4346,"i":4347,"i</w>":4348,"ia</w>":4349,"ial</w>":4350,"ian</w>":4351,"ib":4352,"ic":4353,"ic</w>":4354,"ical</w>":4355,"ically</w>":4356,"ice</w>":4357,"ices</w>":4358,"ich</w>":4359,"ics</w>":4360,"id</w>":4361,"ide":4362,"idea</w>":4363,"ideas</w>":4364,"idee</w>":4365,"ideen</w>":4366,"iden":4367,"identi":4368,"identify</w>":4369,"identity</w>":4370,"identität</w>":4371,"ids</w>":4372,"ie":4373,"ie</w>":4374,"iel</w>":4375,"ien</w>":4376,"ier":4377,"ier</w>":4378,"ieren</w>":4379,"iert</w>":4380,"ierte</w>":4381,"ierten</w>":4382,"ies</w>":4383,"iety</w>":4384,"if</w>":4385,"ig":4386,"ig</w>":4387,"ige</w>":4388,"igen</w>":4389,"iger</w>":4390,"iges</w>":4391,"ight</w>":4392,"igkeit</w>":4393,"igkeiten</w>":4394,"ignor":4395,"ih":4396,"ihm</w>":4397,"ihn</w>":4398,"ihnen</w>":4399,"ihr":4400,"ihr</w>":4401,"ihre</w>":4402,"ihrem</w>":4403,"ihren</w>":4404,"ihrer</w>":4405,"ihres</w>":4406,"ii</w>":4407,"ik</w>":4408,"il":4409,"il</w>":4410,"iled</w>":4411,"ilfe</w>":4412,"ili":4413,"ill":4414,"ill</w>":4415,"ille</w>":4416,"illegal</w>":4417,"illness</w>":4418,"ills</w>":4419,"illu":4420,"illusion</w>":4421,"ils</w>":4422,"ily</w>":4423,"im":4424,"im</w>":4425,"ima":4426,"imag":4427,"image</w>":4428,"images</w>":4429,"imagination</w>":4430,"imagine</w>":4431,"imm":4432,"immedi":4433,"immediately</w>":4434,"immer":4435,"immer</w>":4436,"imp":4437,"impact</w>":4438,"impan":4439,"impf":4440,"implan":4441,"imple":4442,"impli":4443,"import":4444,"importance</w>":4445,"important</w>":4446,"importantly</w>":4447,"impossible</w>":4448,"impres":4449,"impro":4450,"improve</w>":4451,"impul":4452,"ims</w>":4453,"in":4454,"in-":4455,"in</w>":4456,"ina</w>":4457,"ination</w>":4458,"inci":4459,"inclu":4460,"including</w>":4461,"income</w>":4462,"incre":4463,"increas":4464,"increase</w>":4465,"increasing</w>":4466,"increasingly</w>":4467,"incredi":4468,"incredible</w>":4469,"incredibly</w>":4470,"ind</w>":4471,"inde":4472,"indeed</w>":4473,"indem</w>":4474,"indepen":4475,"independent</w>":4476,"indi":4477,"india</w>":4478,"indian</w>":4479,"indien</w>":4480,"indivi":4481,"individu":4482,"individual</w>":4483,"individuals</w>":4484,"individuen</w>":4485,"indu":4486,"industr":4487,"industri":4488,"industrial</w>":4489,"industrie</w>":4490,"industry</w>":4491,"ine":4492,"ine</w>":4493,"ined</w>":4494,"inen</w>":4495,"ines</w>":4496,"iness</w>":4497,"inevi":4498,"inf":4499,"infe":4500,"infin":4501,"influ":4502,"influence</w>":4503,"infor":4504,"informa":4505,"information</w>":4506,"informationen</w>":4507,"infra":4508,"infrastructure</w>":4509,"infrastruktur</w>":4510,"ing":4511,"ing-":4512,"ing</w>":4513,"inge</w>":4514,"ingen</w>":4515,"ingenie":4516,"inger</w>":4517,"inging</w>":4518,"ingly</w>":4519,"ingre":4520,"ings":4521,"ings</w>":4522,"ingt</w>":4523,"ingu":4524,"inhalt</w>":4525,"ini":4526,"inier":4527,"inieren</w>":4528,"ining</w>":4529,"initi":4530,"initiative</w>":4531,"inje":4532,"ink</w>":4533,"inn":4534,"inn</w>":4535,"innen":4536,"innen</w>":4537,"inner":4538,"inner</w>":4539,"innere</w>":4540,"inneren</w>":4541,"innerhalb</w>":4542,"inning</w>":4543,"inno":4544,"innova":4545,"innovation</w>":4546,"innovative</w>":4547,"input</w>":4548,"ins":4549,"ins</w>":4550,"insbesondere</w>":4551,"inse":4552,"insects</w>":4553,"insekten</w>":4554,"insel</w>":4555,"inseln</w>":4556,"insi":4557,"inside</w>":4558,"inspi":4559,"inspiration</w>":4560,"inspired</w>":4561,"inspiri":4562,"inspiriert</w>":4563,"inst":4564,"inst</w>":4565,"instal":4566,"instance</w>":4567,"instead</w>":4568,"instin":4569,"instit":4570,"institu":4571,"institute</w>":4572,"institution</w>":4573,"institutionen</w>":4574,"institutions</w>":4575,"instru":4576,"instrument</w>":4577,"insu":4578,"int</w>":4579,"inte":4580,"integr":4581,"integra":4582,"integri":4583,"intel":4584,"intelle":4585,"intellec":4586,"intellectual</w>":4587,"intellektu":4588,"intelli":4589,"intelligen":4590,"intelligence</w>":4591,"intelligent</w>":4592,"intelligenz</w>":4593,"inten":4594,"intensi":4595,"inter":4596,"interact</w>":4597,"interaction</w>":4598,"interagieren</w>":4599,"interak":4600,"interess":4601,"interessan":4602,"interessant</w>":4603,"interessante</w>":4604,"interesse</w>":4605,"interessi":4606,"interessieren</w>":4607,"interessiert</w>":4608,"interest":4609,"interest</w>":4610,"interested</w>":4611,"interesting</w>":4612,"interface</w>":4613,"intern":4614,"internation":4615,"international</w>":4616,"internationale</w>":4617,"internationalen</w>":4618,"internet":4619,"internet</w>":4620,"interpre":4621,"interpretation</w>":4622,"interven":4623,"intervie":4624,"interview</w>":4625,"inti":4626,"into</w>":4627,"intri":4628,"intro":4629,"introdu":4630,"introduced</w>":4631,"intu":4632,"intui":4633,"intuition</w>":4634,"inv":4635,"invasi":4636,"inven":4637,"invented</w>":4638,"invention</w>":4639,"invest":4640,"invest</w>":4641,"investi":4642,"investieren</w>":4643,"investment</w>":4644,"invi":4645,"invisi":4646,"invisible</w>":4647,"invited</w>":4648,"invol":4649,"involved</w>":4650,"ior</w>":4651,"iphone</w>":4652,"ipo":4653,"ir":4654,"ir</w>":4655,"ira":4656,"irak</w>":4657,"iran</w>":4658,"iraq</w>":4659,"ire</w>":4660,"ires</w>":4661,"irgen":4662,"irgend":4663,"irgendet":4664,"irgendetwas</w>":4665,"irgendwann</w>":4666,"irgendwie</w>":4667,"irgendwo</w>":4668,"irs</w>":4669,"is":4670,"is</w>":4671,"isch":4672,"isch</w>":4673,"ische</w>":4674,"ischen</w>":4675,"ischer</w>":4676,"isches</w>":4677,"ise</w>":4678,"ish":4679,"ish</w>":4680,"ished</w>":4681,"ishing</w>":4682,"isi":4683,"ision</w>":4684,"isla":4685,"islam":4686,"islam</w>":4687,"island</w>":4688,"ism</w>":4689,"ismus</w>":4690,"isn</w>":4691,"iso":4692,"isol":4693,"ison</w>":4694,"isra":4695,"israel</w>":4696,"issen</w>":4697,"issu":4698,"issue</w>":4699,"issues</w>":4700,"ist</w>":4701,"ists</w>":4702,"it":4703,"it</w>":4704,"ital</w>":4705,"itali":4706,"ite</w>":4707,"ited</w>":4708,"itely</w>":4709,"ites</w>":4710,"ith</w>":4711,"iti</w>":4712,"iting</w>":4713,"its</w>":4714,"itself</w>":4715,"ity</w>":4716,"itä":4717,"ität</w>":4718,"itäten</w>":4719,"ium</w>":4720,"ize</w>":4721,"j":4722,"j</w>":4723,"ja":4724,"ja</w>":4725,"jac":4726,"jack</w>":4727,"jahr":4728,"jahr</w>":4729,"jahre</w>":4730,"jahren</w>":4731,"jahres</w>":4732,"jahrhunder":4733,"jahrhundert</w>":4734,"jahrhunderts</w>":4735,"jahrzehn":4736,"jam":4737,"james</w>":4738,"jan":4739,"janu":4740,"japan":4741,"japan</w>":4742,"japanese</w>":4743,"je":4744,"je</w>":4745,"jede</w>":4746,"jedem</w>":4747,"jeden":4748,"jeden</w>":4749,"jedenfalls</w>":4750,"jeder</w>":4751,"jedes</w>":4752,"jedoch</w>":4753,"jem":4754,"jemals</w>":4755,"jeman":4756,"jemand</w>":4757,"jemandem</w>":4758,"jemanden</w>":4759,"jen":4760,"jene</w>":4761,"jenigen</w>":4762,"jer":4763,"jes":4764,"jetzt</w>":4765,"jewei":4766,"ji":4767,"jim</w>":4768,"jo":4769,"jo</w>":4770,"job":4771,"job</w>":4772,"jobs</w>":4773,"joe</w>":4774,"john":4775,"john</w>":4776,"join</w>":4777,"jon":4778,"jour":4779,"journ":4780,"journalist</w>":4781,"journey</w>":4782,"joy</w>":4783,"ju":4784,"jud":4785,"jugend":4786,"juli":4787,"jum":4788,"jump</w>":4789,"jun":4790,"jung":4791,"junge</w>":4792,"jungen</w>":4793,"junger</w>":4794,"jungs</w>":4795,"just</w>":4796,"justi":4797,"justice</w>":4798,"jä":4799,"jähr":4800,"jähri":4801,"jährige</w>":4802,"jährigen</w>":4803,"jün":4804,"k":4805,"k-":4806,"k.</w>":4807,"k</w>":4808,"ka":4809,"ka</w>":4810,"kab":4811,"kaffee</w>":4812,"kal":4813,"kalien</w>":4814,"kalifor":4815,"kalifornien</w>":4816,"kam":4817,"kam</w>":4818,"kamen</w>":4819,"kamera</w>":4820,"kampagne</w>":4821,"kampf</w>":4822,"kan":4823,"kanada</w>":4824,"kann</w>":4825,"kannst</w>":4826,"kap":4827,"kapit":4828,"kapital</w>":4829,"kapu":4830,"kar":4831,"kari":4832,"karri":4833,"karriere</w>":4834,"karte</w>":4835,"karten</w>":4836,"kas</w>":4837,"kat":4838,"katastrop":4839,"katastrophe</w>":4840,"kation</w>":4841,"kauf":4842,"kaufen</w>":4843,"kauft</w>":4844,"kaum</w>":4845,"kay</w>":4846,"kb</w>":4847,"ke":4848,"ke</w>":4849,"ked</w>":4850,"kee":4851,"keep</w>":4852,"keeping</w>":4853,"kehr":4854,"kehr</w>":4855,"kehren</w>":4856,"kehrt</w>":4857,"kei":4858,"kein</w>":4859,"keine</w>":4860,"keinen</w>":4861,"keiner</w>":4862,"keit</w>":4863,"keiten</w>":4864,"keits":4865,"kel":4866,"kel</w>":4867,"keln</w>":4868,"ken":4869,"ken</w>":4870,"kenn":4871,"kenne</w>":4872,"kennen</w>":4873,"kennt</w>":4874,"kens":4875,"kenya</w>":4876,"kept</w>":4877,"ker":4878,"ker</w>":4879,"kerl</w>":4880,"kern":4881,"kern</w>":4882,"kers</w>":4883,"kes</w>":4884,"ket":4885,"ket</w>":4886,"kev":4887,"key":4888,"key</w>":4889,"keys</w>":4890,"ki":4891,"ki</w>":4892,"kid":4893,"kid</w>":4894,"kids</w>":4895,"kil":4896,"kill":4897,"kill</w>":4898,"killed</w>":4899,"killing</w>":4900,"kilome":4901,"kilometer</w>":4902,"kilometers</w>":4903,"kin":4904,"kind":4905,"kind</w>":4906,"kinder":4907,"kinder</w>":4908,"kindern</w>":4909,"kindheit</w>":4910,"kinds</w>":4911,"king":4912,"king</w>":4913,"kins</w>":4914,"kir":4915,"kirche</w>":4916,"kit":4917,"kitchen</w>":4918,"kl":4919,"kla":4920,"klang</w>":4921,"klar":4922,"klar</w>":4923,"klas":4924,"klasse</w>":4925,"klassen":4926,"kle":4927,"kle</w>":4928,"klei":4929,"klein":4930,"klein</w>":4931,"kleine</w>":4932,"kleinen</w>":4933,"kleiner</w>":4934,"kleines</w>":4935,"kli":4936,"klima":4937,"klimawandel</w>":4938,"klin":4939,"klingt</w>":4940,"klini":4941,"klo":4942,"klu":4943,"klär":4944,"km</w>":4945,"kn":4946,"knew</w>":4947,"kni":4948,"kno":4949,"knochen</w>":4950,"know":4951,"know</w>":4952,"knowing</w>":4953,"knowle":4954,"knowledge</w>":4955,"known</w>":4956,"knows</w>":4957,"ko":4958,"ko</w>":4959,"kochen</w>":4960,"kog":4961,"kogni":4962,"kohlen":4963,"kol":4964,"koll":4965,"kolle":4966,"kollegen</w>":4967,"kom":4968,"kombin":4969,"kombination</w>":4970,"komm":4971,"komme</w>":4972,"kommen":4973,"kommen</w>":4974,"komment":4975,"kommt</w>":4976,"kommuni":4977,"kommunikation</w>":4978,"kommunizieren</w>":4979,"komple":4980,"komplett</w>":4981,"komplex":4982,"komplex</w>":4983,"komplexe</w>":4984,"komplexität</w>":4985,"kompli":4986,"kompliziert</w>":4987,"kompon":4988,"kon":4989,"konfer":4990,"konferenz</w>":4991,"konfli":4992,"konflikt</w>":4993,"konfron":4994,"konkur":4995,"konnte</w>":4996,"konnten</w>":4997,"konser":4998,"konstru":4999,"konsu":5000,"konta":5001,"kontakt</w>":5002,"kontext</w>":5003,"kontin":5004,"kontro":5005,"kontrolle</w>":5006,"kontrolli":5007,"kontrollieren</w>":5008,"konz":5009,"konzent":5010,"konzentri":5011,"konzentrieren</w>":5012,"konzep":5013,"konzept</w>":5014,"kop":5015,"kopf":5016,"kopf</w>":5017,"kor":5018,"kore":5019,"korea</w>":5020,"korre":5021,"korruption</w>":5022,"kosten":5023,"kosten</w>":5024,"kostet</w>":5025,"kr":5026,"kra":5027,"kraft":5028,"kraft</w>":5029,"kran":5030,"krank":5031,"krank</w>":5032,"kranken":5033,"krankenhaus</w>":5034,"krankheit</w>":5035,"krankheiten</w>":5036,"krat":5037,"kratie</w>":5038,"kre":5039,"krea":5040,"kreativität</w>":5041,"krebs":5042,"krebs</w>":5043,"krei":5044,"kreieren</w>":5045,"kreis</w>":5046,"kreu":5047,"kri":5048,"krie":5049,"krieg</w>":5050,"kriege</w>":5051,"kriegen</w>":5052,"kriegs":5053,"krimin":5054,"krise</w>":5055,"kro":5056,"krä":5057,"kräf":5058,"kräfte</w>":5059,"ks":5060,"ks</w>":5061,"kt":5062,"kt</w>":5063,"kte</w>":5064,"kten</w>":5065,"ktes</w>":5066,"kti":5067,"ktion</w>":5068,"ktionen</w>":5069,"ktiv</w>":5070,"ktive</w>":5071,"ktiven</w>":5072,"ktor</w>":5073,"ktoren</w>":5074,"kts</w>":5075,"ktu":5076,"ku":5077,"kul":5078,"kultur":5079,"kultur</w>":5080,"kulturen</w>":5081,"kun":5082,"kunde</w>":5083,"kunden</w>":5084,"kunft</w>":5085,"kung</w>":5086,"kungen</w>":5087,"kunst":5088,"kunst</w>":5089,"kur":5090,"kurs</w>":5091,"kurz":5092,"kurz</w>":5093,"kurze</w>":5094,"kurzem</w>":5095,"kurzen</w>":5096,"kus":5097,"kus</w>":5098,"ky</w>":5099,"kä":5100,"kämp":5101,"kämpfen</w>":5102,"kö":5103,"kön":5104,"köni":5105,"können</w>":5106,"könnt</w>":5107,"könnte</w>":5108,"könnten</w>":5109,"kör":5110,"körper":5111,"körper</w>":5112,"körpers</w>":5113,"kü":5114,"kümm":5115,"kümmern</w>":5116,"kün":5117,"künf":5118,"künst":5119,"künstler":5120,"künstler</w>":5121,"kür":5122,"kürz":5123,"kürzlich</w>":5124,"küste</w>":5125,"l":5126,"l-":5127,"l</w>":5128,"la":5129,"la</w>":5130,"lab":5131,"lab</w>":5132,"labor":5133,"labor</w>":5134,"laboratory</w>":5135,"lachen</w>":5136,"lack</w>":5137,"laden</w>":5138,"lades":5139,"ladies</w>":5140,"lady</w>":5141,"lag</w>":5142,"lage</w>":5143,"lagen</w>":5144,"lager</w>":5145,"lam":5146,"lan":5147,"lan</w>":5148,"land":5149,"land</w>":5150,"landen</w>":5151,"landes</w>":5152,"lands</w>":5153,"landscap":5154,"landscape</w>":5155,"landschaft</w>":5156,"landwirtschaft</w>":5157,"lang":5158,"lang</w>":5159,"lange</w>":5160,"langen</w>":5161,"langer</w>":5162,"langsam</w>":5163,"langu":5164,"language</w>":5165,"languages</w>":5166,"langwei":5167,"lap":5168,"laptop</w>":5169,"laptops</w>":5170,"lar":5171,"large</w>":5172,"larger</w>":5173,"largest</w>":5174,"las":5175,"las</w>":5176,"lass</w>":5177,"lasse</w>":5178,"lassen</w>":5179,"lasst</w>":5180,"last</w>":5181,"lat":5182,"late</w>":5183,"later</w>":5184,"lation</w>":5185,"lations</w>":5186,"lau":5187,"lauf":5188,"lauf</w>":5189,"laufe</w>":5190,"laufen</w>":5191,"laugh":5192,"laun":5193,"launched</w>":5194,"laut</w>":5195,"lautet</w>":5196,"law":5197,"law</w>":5198,"laws</w>":5199,"lay</w>":5200,"layer</w>":5201,"ld</w>":5202,"ldn</w>":5203,"le":5204,"le-":5205,"le</w>":5206,"lea":5207,"lead</w>":5208,"leader</w>":5209,"leaders</w>":5210,"leadership</w>":5211,"leading</w>":5212,"leads</w>":5213,"lear":5214,"learn</w>":5215,"learned</w>":5216,"learning</w>":5217,"least</w>":5218,"leave</w>":5219,"leaves</w>":5220,"leaving</w>":5221,"leb":5222,"lebe":5223,"leben":5224,"leben</w>":5225,"lebenden</w>":5226,"lebens":5227,"lebens</w>":5228,"lebenser":5229,"lebewesen</w>":5230,"lebt</w>":5231,"lebte</w>":5232,"lebten</w>":5233,"lec":5234,"led</w>":5235,"ledig":5236,"lediglich</w>":5237,"lee</w>":5238,"left</w>":5239,"leg":5240,"leg</w>":5241,"legal</w>":5242,"lege</w>":5243,"legen</w>":5244,"legi":5245,"legs</w>":5246,"legt</w>":5247,"legte</w>":5248,"lehr":5249,"lehren</w>":5250,"lehrer</w>":5251,"lei":5252,"leicht</w>":5253,"leid</w>":5254,"leiden":5255,"leiden</w>":5256,"leidenschaft</w>":5257,"leider</w>":5258,"leist":5259,"leisten</w>":5260,"leistung</w>":5261,"leistungen</w>":5262,"leistungs":5263,"leiten</w>":5264,"leiter</w>":5265,"lektion</w>":5266,"lem</w>":5267,"len":5268,"len</w>":5269,"leon":5270,"ler":5271,"ler</w>":5272,"lern":5273,"lern</w>":5274,"lernen</w>":5275,"lernt</w>":5276,"lernte</w>":5277,"les":5278,"les</w>":5279,"lesen</w>":5280,"less":5281,"less</w>":5282,"lesson</w>":5283,"lessons</w>":5284,"let":5285,"let</w>":5286,"lets</w>":5287,"letter</w>":5288,"letters</w>":5289,"letz":5290,"letzt</w>":5291,"letzte</w>":5292,"letzten":5293,"letzten</w>":5294,"letztendlich</w>":5295,"letztes</w>":5296,"leu":5297,"leute</w>":5298,"leuten</w>":5299,"level</w>":5300,"levels</w>":5301,"ley</w>":5302,"li":5303,"liber":5304,"libr":5305,"library</w>":5306,"lic":5307,"lic</w>":5308,"licen":5309,"lich":5310,"lich</w>":5311,"liche</w>":5312,"lichem</w>":5313,"lichen</w>":5314,"licher</w>":5315,"licherweise</w>":5316,"liches</w>":5317,"lichkeit</w>":5318,"lichkeiten</w>":5319,"lichsten</w>":5320,"licht":5321,"licht</w>":5322,"lie":5323,"lie</w>":5324,"lieb":5325,"lieb</w>":5326,"liebe</w>":5327,"lieben</w>":5328,"lieber</w>":5329,"liebl":5330,"lieblings":5331,"liebt</w>":5332,"liebte</w>":5333,"lied</w>":5334,"lieder</w>":5335,"lief</w>":5336,"liefer":5337,"liefern</w>":5338,"liefert</w>":5339,"liegen</w>":5340,"liegt</w>":5341,"lieren</w>":5342,"liert</w>":5343,"lies</w>":5344,"ließ</w>":5345,"ließen</w>":5346,"life":5347,"life</w>":5348,"lifest":5349,"lifetime</w>":5350,"lig</w>":5351,"lige</w>":5352,"ligh":5353,"light</w>":5354,"lights</w>":5355,"lik":5356,"like</w>":5357,"liked</w>":5358,"likely</w>":5359,"lim":5360,"limit":5361,"limited</w>":5362,"lin":5363,"lin</w>":5364,"lincol":5365,"line</w>":5366,"lines</w>":5367,"ling</w>":5368,"linge</w>":5369,"linie</w>":5370,"linien</w>":5371,"link</w>":5372,"linken</w>":5373,"links</w>":5374,"liqu":5375,"liquid</w>":5376,"list</w>":5377,"liste</w>":5378,"listen":5379,"listen</w>":5380,"listening</w>":5381,"liter":5382,"literally</w>":5383,"little</w>":5384,"live</w>":5385,"lived</w>":5386,"lives</w>":5387,"living</w>":5388,"ll":5389,"ll</w>":5390,"llan":5391,"lle</w>":5392,"llen</w>":5393,"lli":5394,"llig</w>":5395,"llt</w>":5396,"lo":5397,"load</w>":5398,"local</w>":5399,"location</w>":5400,"loch</w>":5401,"lock</w>":5402,"log":5403,"logi":5404,"lok":5405,"lokalen</w>":5406,"lon":5407,"london</w>":5408,"long-":5409,"long-term</w>":5410,"long</w>":5411,"longer</w>":5412,"loo":5413,"look</w>":5414,"looked</w>":5415,"looking</w>":5416,"looks</w>":5417,"los":5418,"los</w>":5419,"lose</w>":5420,"losen</w>":5421,"losing</w>":5422,"loss</w>":5423,"lossen":5424,"lossen</w>":5425,"lost</w>":5426,"lot":5427,"lot</w>":5428,"lots</w>":5429,"lou":5430,"love</w>":5431,"loved</w>":5432,"low-":5433,"low</w>":5434,"lower</w>":5435,"ls</w>":5436,"lt</w>":5437,"lu":5438,"lucky</w>":5439,"luft":5440,"luft</w>":5441,"lun":5442,"lunch</w>":5443,"lung</w>":5444,"lungen</w>":5445,"lustig</w>":5446,"lux":5447,"ly":5448,"ly</w>":5449,"lying</w>":5450,"lä":5451,"läch":5452,"län":5453,"länder</w>":5454,"ländern</w>":5455,"länger</w>":5456,"lässi":5457,"lässt</w>":5458,"läu":5459,"läuft</w>":5460,"lö":5461,"löcher</w>":5462,"lösen</w>":5463,"lösung</w>":5464,"lösungen</w>":5465,"lü":5466,"m":5467,"m-":5468,"m</w>":5469,"ma":5470,"ma</w>":5471,"mach":5472,"mach</w>":5473,"mache</w>":5474,"machen</w>":5475,"machin":5476,"machine</w>":5477,"machines</w>":5478,"macht</w>":5479,"machte</w>":5480,"machten</w>":5481,"mad</w>":5482,"made</w>":5483,"mag":5484,"mag</w>":5485,"maga":5486,"magazine</w>":5487,"magic</w>":5488,"magne":5489,"magnetic</w>":5490,"magni":5491,"mail</w>":5492,"mails</w>":5493,"main":5494,"main</w>":5495,"maj":5496,"major</w>":5497,"majority</w>":5498,"make</w>":5499,"maker</w>":5500,"makers</w>":5501,"makes</w>":5502,"making</w>":5503,"mal":5504,"mal</w>":5505,"malari":5506,"malaria</w>":5507,"male</w>":5508,"malen</w>":5509,"males</w>":5510,"mali":5511,"mals</w>":5512,"mam":5513,"mama</w>":5514,"mammo":5515,"man":5516,"man</w>":5517,"mana":5518,"manage</w>":5519,"managed</w>":5520,"management</w>":5521,"manche</w>":5522,"manchmal</w>":5523,"mand":5524,"manhat":5525,"manhattan</w>":5526,"mani":5527,"manipu":5528,"mann</w>":5529,"manu":5530,"manufac":5531,"many</w>":5532,"map</w>":5533,"maps</w>":5534,"mar":5535,"marine</w>":5536,"mark":5537,"mark</w>":5538,"marke":5539,"market":5540,"market</w>":5541,"marketing</w>":5542,"markets</w>":5543,"marki":5544,"markt":5545,"markt</w>":5546,"marri":5547,"marriage</w>":5548,"married</w>":5549,"mars</w>":5550,"martin</w>":5551,"mary</w>":5552,"mas":5553,"mas</w>":5554,"masch":5555,"maschine</w>":5556,"maschinen</w>":5557,"mass</w>":5558,"masse</w>":5559,"massen":5560,"massi":5561,"massive</w>":5562,"master</w>":5563,"mat":5564,"match</w>":5565,"mate</w>":5566,"materi":5567,"material</w>":5568,"materialien</w>":5569,"materials</w>":5570,"materie</w>":5571,"mates</w>":5572,"math</w>":5573,"mathe":5574,"mathema":5575,"mathemati":5576,"mathematical</w>":5577,"mathematics</w>":5578,"mathematik</w>":5579,"mati":5580,"matic</w>":5581,"matically</w>":5582,"matisch</w>":5583,"matri":5584,"matter</w>":5585,"matters</w>":5586,"mau":5587,"maus</w>":5588,"may":5589,"may</w>":5590,"maybe</w>":5591,"maß":5592,"maß</w>":5593,"maßen</w>":5594,"maßstab</w>":5595,"mber</w>":5596,"mc":5597,"me":5598,"me</w>":5599,"mean":5600,"mean</w>":5601,"meaning":5602,"meaning</w>":5603,"means</w>":5604,"meant</w>":5605,"meas":5606,"measu":5607,"measure</w>":5608,"meat</w>":5609,"mechan":5610,"mechanis":5611,"med</w>":5612,"medi":5613,"media</w>":5614,"medic":5615,"medical</w>":5616,"medicine</w>":5617,"medien":5618,"medien</w>":5619,"medikam":5620,"medikament</w>":5621,"medikamente</w>":5622,"medium</w>":5623,"medizin":5624,"medizin</w>":5625,"medizinische</w>":5626,"mee</w>":5627,"meer":5628,"meer</w>":5629,"meeres":5630,"meet":5631,"meet</w>":5632,"meeting</w>":5633,"meetings</w>":5634,"mehr":5635,"mehr</w>":5636,"mehrere</w>":5637,"mei":5638,"meilen</w>":5639,"mein":5640,"mein</w>":5641,"meine</w>":5642,"meinem</w>":5643,"meinen</w>":5644,"meiner</w>":5645,"meines</w>":5646,"meinung</w>":5647,"meist</w>":5648,"meiste</w>":5649,"meisten</w>":5650,"meistens</w>":5651,"meister</w>":5652,"mel":5653,"mel</w>":5654,"melt</w>":5655,"mem":5656,"member</w>":5657,"members</w>":5658,"memor":5659,"memory</w>":5660,"men":5661,"men</w>":5662,"mend":5663,"menge</w>":5664,"mengen</w>":5665,"mensch":5666,"mensch</w>":5667,"menschen":5668,"menschen</w>":5669,"menschheit</w>":5670,"menschliche</w>":5671,"menschlichen</w>":5672,"menschlicher</w>":5673,"menschliches</w>":5674,"ment":5675,"ment</w>":5676,"mental</w>":5677,"mente</w>":5678,"mented</w>":5679,"menten</w>":5680,"mention</w>":5681,"mentioned</w>":5682,"ments</w>":5683,"mer":5684,"mer</w>":5685,"merk":5686,"mern</w>":5687,"mers</w>":5688,"mes":5689,"mes</w>":5690,"mess":5691,"message</w>":5692,"messen</w>":5693,"messer</w>":5694,"met":5695,"met</w>":5696,"meta":5697,"metal</w>":5698,"metaph":5699,"metapher</w>":5700,"metaphor</w>":5701,"meter</w>":5702,"meters</w>":5703,"meth":5704,"metho":5705,"method</w>":5706,"methode</w>":5707,"methoden</w>":5708,"mexi":5709,"mexic":5710,"mexico</w>":5711,"mexiko</w>":5712,"mi":5713,"mic</w>":5714,"mich</w>":5715,"micha":5716,"michael</w>":5717,"micro":5718,"microscop":5719,"microsoft</w>":5720,"mid":5721,"midd":5722,"middle</w>":5723,"mie":5724,"mie</w>":5725,"mier":5726,"mieren</w>":5727,"miert</w>":5728,"might</w>":5729,"migr":5730,"migra":5731,"mikro":5732,"mikrosk":5733,"mil":5734,"mile</w>":5735,"miles</w>":5736,"mili":5737,"milit":5738,"military</w>":5739,"militär":5740,"milk</w>":5741,"milli":5742,"milliar":5743,"milliarde</w>":5744,"milliarden</w>":5745,"million</w>":5746,"millionen</w>":5747,"millions</w>":5748,"min":5749,"mind</w>":5750,"minde":5751,"mindestens</w>":5752,"minds</w>":5753,"mine</w>":5754,"miner":5755,"ming</w>":5756,"mini":5757,"minim":5758,"minister":5759,"minister</w>":5760,"minute</w>":5761,"minuten</w>":5762,"minutes</w>":5763,"mir":5764,"mir</w>":5765,"mira":5766,"mis":5767,"mischen</w>":5768,"miss":5769,"miss</w>":5770,"missing</w>":5771,"mission</w>":5772,"mista":5773,"mistake</w>":5774,"mit":5775,"mit</w>":5776,"mitarbeiter</w>":5777,"miteinander</w>":5778,"mitg":5779,"mitgefühl</w>":5780,"mitglieder</w>":5781,"mitt":5782,"mitta":5783,"mitte</w>":5784,"mittel":5785,"mittel</w>":5786,"mitteln</w>":5787,"mitten</w>":5788,"mittl":5789,"mittler":5790,"mittleren</w>":5791,"mix":5792,"mix</w>":5793,"mlich</w>":5794,"mm":5795,"mm</w>":5796,"mme</w>":5797,"mmen</w>":5798,"mmer</w>":5799,"mming</w>":5800,"mmt</w>":5801,"mo":5802,"mo</w>":5803,"mobil":5804,"mobile</w>":5805,"mobili":5806,"mod":5807,"mode</w>":5808,"model</w>":5809,"modell</w>":5810,"modelle</w>":5811,"models</w>":5812,"moder":5813,"modern</w>":5814,"moderne</w>":5815,"modernen</w>":5816,"modi":5817,"mol":5818,"mole":5819,"molecul":5820,"molecular</w>":5821,"molecule</w>":5822,"molecules</w>":5823,"molekul":5824,"molekü":5825,"molekül</w>":5826,"moleküle</w>":5827,"mom":5828,"mom</w>":5829,"moment":5830,"moment</w>":5831,"momente</w>":5832,"moments</w>":5833,"mon":5834,"mon</w>":5835,"monat</w>":5836,"monate</w>":5837,"monaten</w>":5838,"mond</w>":5839,"money</w>":5840,"monit":5841,"month</w>":5842,"months</w>":5843,"moon</w>":5844,"mor":5845,"mor</w>":5846,"moral":5847,"moral</w>":5848,"moralische</w>":5849,"more</w>":5850,"morgen</w>":5851,"morgens</w>":5852,"morning</w>":5853,"mortality</w>":5854,"mosp":5855,"most</w>":5856,"mostly</w>":5857,"mot":5858,"mote</w>":5859,"mother</w>":5860,"mothers</w>":5861,"motion</w>":5862,"motiv":5863,"motivation</w>":5864,"motivi":5865,"motor":5866,"motor</w>":5867,"mou":5868,"moun":5869,"mountain</w>":5870,"mountains</w>":5871,"mous</w>":5872,"mouse</w>":5873,"mouth</w>":5874,"mov":5875,"move</w>":5876,"moved</w>":5877,"movement</w>":5878,"moves</w>":5879,"movi":5880,"movie</w>":5881,"movies</w>":5882,"moving</w>":5883,"mp":5884,"mp</w>":5885,"mption</w>":5886,"mr":5887,"mr.</w>":5888,"ms</w>":5889,"mt</w>":5890,"mu":5891,"much</w>":5892,"mul":5893,"multi":5894,"multi-":5895,"multiple</w>":5896,"mund</w>":5897,"mung</w>":5898,"mur":5899,"mus":5900,"mus</w>":5901,"muscle</w>":5902,"muse":5903,"museum</w>":5904,"musi":5905,"music</w>":5906,"musical</w>":5907,"musik":5908,"musik</w>":5909,"musli":5910,"muss</w>":5911,"musst</w>":5912,"musste</w>":5913,"mussten</w>":5914,"must</w>":5915,"muster</w>":5916,"mut</w>":5917,"mutter":5918,"mutter</w>":5919,"my":5920,"my</w>":5921,"myself</w>":5922,"myster":5923,"mä":5924,"mäch":5925,"mäd":5926,"mädchen</w>":5927,"män":5928,"männ":5929,"männer</w>":5930,"männern</w>":5931,"mär":5932,"märkte</w>":5933,"mäß":5934,"mäßig</w>":5935,"mö":5936,"möchte</w>":5937,"möchten</w>":5938,"mög":5939,"mögen</w>":5940,"möglich":5941,"möglich</w>":5942,"mögliche</w>":5943,"möglichen</w>":5944,"möglicherweise</w>":5945,"möglichkeit</w>":5946,"möglichkeiten</w>":5947,"mü":5948,"müll</w>":5949,"müs":5950,"müssen</w>":5951,"müsste</w>":5952,"müssten</w>":5953,"mütter</w>":5954,"n":5955,"n-":5956,"n.</w>":5957,"n</w>":5958,"na":5959,"na-":5960,"na</w>":5961,"nach":5962,"nach</w>":5963,"nachbar":5964,"nachbarn</w>":5965,"nachdem</w>":5966,"nachdenken</w>":5967,"nachhal":5968,"nachricht</w>":5969,"nachrichten</w>":5970,"nacht</w>":5971,"nachts</w>":5972,"nachzu":5973,"nachzudenken</w>":5974,"nah":5975,"nah</w>":5976,"nahe":5977,"nahe</w>":5978,"nahm</w>":5979,"nahme</w>":5980,"nahmen</w>":5981,"nahr":5982,"nahrung</w>":5983,"nahrungs":5984,"nai":5985,"naja</w>":5986,"nam":5987,"name</w>":5988,"named</w>":5989,"namen</w>":5990,"namens</w>":5991,"names</w>":5992,"nan":5993,"nannte</w>":5994,"nant</w>":5995,"nap":5996,"nar":5997,"narra":5998,"nas":5999,"nasa</w>":6000,"nat":6001,"nation":6002,"nation</w>":6003,"national":6004,"national</w>":6005,"nationen</w>":6006,"nations</w>":6007,"natu":6008,"natur":6009,"natur</w>":6010,"natural</w>":6011,"naturally</w>":6012,"nature</w>":6013,"natür":6014,"natürlich</w>":6015,"natürliche</w>":6016,"natürlichen</w>":6017,"navi":6018,"nde</w>":6019,"nden</w>":6020,"ne":6021,"ne</w>":6022,"near</w>":6023,"nearly</w>":6024,"neath</w>":6025,"neben":6026,"neben</w>":6027,"necess":6028,"necessarily</w>":6029,"necessary</w>":6030,"ned</w>":6031,"nee":6032,"nee</w>":6033,"need":6034,"need</w>":6035,"needed</w>":6036,"needs</w>":6037,"nega":6038,"negative</w>":6039,"negoti":6040,"neh":6041,"nehme</w>":6042,"nehmen</w>":6043,"nei":6044,"neigh":6045,"neighb":6046,"neighbor":6047,"neighborhood</w>":6048,"nein</w>":6049,"nel":6050,"nel</w>":6051,"nen":6052,"nen</w>":6053,"nenne</w>":6054,"nennen</w>":6055,"nennt</w>":6056,"ner":6057,"ner</w>":6058,"nern</w>":6059,"ners</w>":6060,"nerv":6061,"nerven":6062,"nervous</w>":6063,"nes":6064,"nes</w>":6065,"ness</w>":6066,"nest</w>":6067,"net":6068,"net</w>":6069,"nete</w>":6070,"neten</w>":6071,"nets</w>":6072,"nett</w>":6073,"network</w>":6074,"networks</w>":6075,"netz":6076,"netz</w>":6077,"netzwerk</w>":6078,"netzwerke</w>":6079,"neu":6080,"neu</w>":6081,"neue</w>":6082,"neuen</w>":6083,"neuer</w>":6084,"neues</w>":6085,"neugi":6086,"neun</w>":6087,"neur":6088,"neuro":6089,"neuronen</w>":6090,"neurons</w>":6091,"never</w>":6092,"new":6093,"new</w>":6094,"news</w>":6095,"newspaper</w>":6096,"next</w>":6097,"ney</w>":6098,"ni":6099,"nia</w>":6100,"nice</w>":6101,"nicht":6102,"nicht-":6103,"nicht</w>":6104,"nichts</w>":6105,"nie":6106,"nie</w>":6107,"nieder":6108,"niedri":6109,"niem":6110,"niemals</w>":6111,"nieman":6112,"niemand</w>":6113,"nien</w>":6114,"nigeri":6115,"nigeria</w>":6116,"night</w>":6117,"nik</w>":6118,"nimmt</w>":6119,"nin":6120,"nine</w>":6121,"ning</w>":6122,"nis":6123,"nis</w>":6124,"nisse</w>":6125,"nissen</w>":6126,"nive":6127,"no":6128,"no</w>":6129,"nobody</w>":6130,"noch</w>":6131,"nochmal</w>":6132,"noise</w>":6133,"nom":6134,"non":6135,"non-":6136,"none</w>":6137,"noon</w>":6138,"nor":6139,"nor</w>":6140,"nord":6141,"norden</w>":6142,"norm":6143,"normal":6144,"normal</w>":6145,"normale</w>":6146,"normalen</w>":6147,"normalerweise</w>":6148,"normally</w>":6149,"north</w>":6150,"northern</w>":6151,"nose</w>":6152,"not":6153,"not</w>":6154,"note</w>":6155,"noten</w>":6156,"notes</w>":6157,"nothing</w>":6158,"notic":6159,"notice</w>":6160,"noticed</w>":6161,"notion</w>":6162,"notwen":6163,"notwendig</w>":6164,"novel</w>":6165,"now</w>":6166,"ns</w>":6167,"nst</w>":6168,"nt</w>":6169,"nte</w>":6170,"nten</w>":6171,"nu":6172,"nuclear</w>":6173,"null</w>":6174,"num":6175,"number</w>":6176,"numbers</w>":6177,"nummer</w>":6178,"nun</w>":6179,"nung</w>":6180,"nungen</w>":6181,"nungs":6182,"nur":6183,"nur</w>":6184,"nutri":6185,"nutz":6186,"nutzen</w>":6187,"nutzt</w>":6188,"nutzung</w>":6189,"ny</w>":6190,"nä":6191,"näch":6192,"nächste</w>":6193,"nächsten</w>":6194,"nächstes</w>":6195,"nähe</w>":6196,"näher":6197,"näher</w>":6198,"nähr":6199,"nämlich</w>":6200,"nö":6201,"nötig</w>":6202,"nü":6203,"nütz":6204,"nützlich</w>":6205,"o":6206,"o-":6207,"o</w>":6208,"ob":6209,"ob</w>":6210,"obama</w>":6211,"oben</w>":6212,"ober":6213,"oberfläche</w>":6214,"obje":6215,"object</w>":6216,"objects</w>":6217,"objekt</w>":6218,"objekte</w>":6219,"obs":6220,"obser":6221,"obvi":6222,"obvious</w>":6223,"obviously</w>":6224,"obwohl</w>":6225,"oc":6226,"occasi":6227,"occu":6228,"occur":6229,"oce":6230,"ocean</w>":6231,"oceans</w>":6232,"od":6233,"od</w>":6234,"oder</w>":6235,"ods</w>":6236,"of-":6237,"of</w>":6238,"off":6239,"off</w>":6240,"offen":6241,"offen</w>":6242,"offensichtlich</w>":6243,"offer</w>":6244,"offi":6245,"office</w>":6246,"oft</w>":6247,"often</w>":6248,"og":6249,"ogen":6250,"ogra":6251,"ograph":6252,"oh</w>":6253,"ohne</w>":6254,"oil</w>":6255,"ok":6256,"ok</w>":6257,"okay</w>":6258,"ol":6259,"ol</w>":6260,"old</w>":6261,"older</w>":6262,"oli":6263,"oll":6264,"olly":6265,"ollywood</w>":6266,"olo":6267,"olog":6268,"ologe</w>":6269,"ologen</w>":6270,"ologi":6271,"ological</w>":6272,"ologie</w>":6273,"ologische</w>":6274,"ologischen</w>":6275,"ologist</w>":6276,"ologists</w>":6277,"ology</w>":6278,"ols</w>":6279,"oly":6280,"olymp":6281,"om":6282,"om</w>":6283,"ome":6284,"ome</w>":6285,"omen":6286,"omen</w>":6287,"oms</w>":6288,"on":6289,"on-":6290,"on</w>":6291,"onal</w>":6292,"once</w>":6293,"ond</w>":6294,"onder":6295,"one":6296,"one-":6297,"one</w>":6298,"oned</w>":6299,"onen</w>":6300,"ones</w>":6301,"ong</w>":6302,"oni":6303,"onic</w>":6304,"onie</w>":6305,"oning</w>":6306,"onlin":6307,"online-":6308,"online</w>":6309,"only</w>":6310,"onnen</w>":6311,"ons</w>":6312,"onto</w>":6313,"ony":6314,"ony</w>":6315,"op":6316,"op</w>":6317,"open":6318,"open-":6319,"open</w>":6320,"opened</w>":6321,"opening</w>":6322,"oper":6323,"operate</w>":6324,"operating</w>":6325,"operation</w>":6326,"opfer</w>":6327,"opini":6328,"opp":6329,"opport":6330,"opportunities</w>":6331,"opportunity</w>":6332,"opposite</w>":6333,"ops</w>":6334,"opti":6335,"optimi":6336,"optimis":6337,"option</w>":6338,"or":6339,"or</w>":6340,"oral</w>":6341,"orange</w>":6342,"orbit</w>":6343,"orche":6344,"ord":6345,"ord</w>":6346,"order</w>":6347,"orders</w>":6348,"ordin":6349,"ordinary</w>":6350,"ordnung</w>":6351,"ore":6352,"ore</w>":6353,"oren</w>":6354,"organ":6355,"organ</w>":6356,"organi":6357,"organic</w>":6358,"organis":6359,"organisation</w>":6360,"organisationen</w>":6361,"organisi":6362,"organismen</w>":6363,"organisms</w>":6364,"organization</w>":6365,"organizations</w>":6366,"organized</w>":6367,"organs</w>":6368,"ori":6369,"orien</w>":6370,"orienti":6371,"ories</w>":6372,"orig":6373,"origami</w>":6374,"origin":6375,"original</w>":6376,"orith":6377,"ority</w>":6378,"orrow</w>":6379,"ors</w>":6380,"ort</w>":6381,"orte</w>":6382,"orten</w>":6383,"ory</w>":6384,"os</w>":6385,"osau":6386,"osity</w>":6387,"osop":6388,"ost":6389,"osten</w>":6390,"ot":6391,"ot</w>":6392,"ota</w>":6393,"ote</w>":6394,"oten</w>":6395,"oth</w>":6396,"othe":6397,"other":6398,"other</w>":6399,"others</w>":6400,"otherwise</w>":6401,"ots</w>":6402,"ou":6403,"oud</w>":6404,"ough":6405,"ough</w>":6406,"ought</w>":6407,"ould</w>":6408,"ouldn</w>":6409,"our":6410,"our</w>":6411,"ours</w>":6412,"ourselves</w>":6413,"ous":6414,"ous</w>":6415,"ously</w>":6416,"ousness</w>":6417,"out":6418,"out</w>":6419,"outside</w>":6420,"over":6421,"over</w>":6422,"ow":6423,"own</w>":6424,"ox":6425,"oxford</w>":6426,"oxy":6427,"oxygen</w>":6428,"oxyto":6429,"oze":6430,"ozean":6431,"ozean</w>":6432,"p":6433,"p-":6434,"p</w>":6435,"pa":6436,"pa</w>":6437,"paar</w>":6438,"pac":6439,"paci":6440,"pacific</w>":6441,"pack</w>":6442,"pad</w>":6443,"pag":6444,"page</w>":6445,"pages</w>":6446,"pagne</w>":6447,"paid</w>":6448,"paig":6449,"pain":6450,"pain</w>":6451,"paint</w>":6452,"painting</w>":6453,"pair</w>":6454,"paki":6455,"pakistan</w>":6456,"pal":6457,"palä":6458,"pan":6459,"pan</w>":6460,"pants</w>":6461,"paper</w>":6462,"papi":6463,"papier</w>":6464,"par":6465,"para":6466,"paradig":6467,"parado":6468,"paraly":6469,"parents</w>":6470,"paris</w>":6471,"park</w>":6472,"part":6473,"part</w>":6474,"parti":6475,"partic":6476,"partici":6477,"participa":6478,"particles</w>":6479,"particul":6480,"particular</w>":6481,"particularly</w>":6482,"partment</w>":6483,"partner":6484,"partner</w>":6485,"parts</w>":6486,"party</w>":6487,"pas":6488,"pass</w>":6489,"passed</w>":6490,"passen</w>":6491,"passi":6492,"passieren</w>":6493,"passiert</w>":6494,"passierte</w>":6495,"passion":6496,"passion</w>":6497,"passionate</w>":6498,"passt</w>":6499,"past</w>":6500,"pat":6501,"patent</w>":6502,"path":6503,"path</w>":6504,"pathy</w>":6505,"pati":6506,"patient</w>":6507,"patienten</w>":6508,"patients</w>":6509,"patri":6510,"patter":6511,"pattern</w>":6512,"patterns</w>":6513,"pau":6514,"paul</w>":6515,"pause</w>":6516,"pay":6517,"pay</w>":6518,"paying</w>":6519,"pazi":6520,"pe":6521,"pe</w>":6522,"peace</w>":6523,"peak</w>":6524,"ped</w>":6525,"pedia</w>":6526,"pel</w>":6527,"pen":6528,"pen</w>":6529,"pengu":6530,"penguins</w>":6531,"peop":6532,"people</w>":6533,"per":6534,"per</w>":6535,"percei":6536,"percent":6537,"percent</w>":6538,"perception</w>":6539,"perfe":6540,"perfect</w>":6541,"perfectly</w>":6542,"perfekt</w>":6543,"perfor":6544,"performan":6545,"performance</w>":6546,"perhaps</w>":6547,"peri":6548,"period</w>":6549,"perman":6550,"pers":6551,"pers</w>":6552,"person":6553,"person</w>":6554,"personal</w>":6555,"personally</w>":6556,"personen</w>":6557,"perspe":6558,"perspective</w>":6559,"perspektive</w>":6560,"persön":6561,"persönlich</w>":6562,"persönliche</w>":6563,"persönlichen</w>":6564,"pes</w>":6565,"pet</w>":6566,"peter</w>":6567,"pf":6568,"pf</w>":6569,"pfe</w>":6570,"pfei":6571,"pfen</w>":6572,"pfer":6573,"pflan":6574,"pflanzen</w>":6575,"pfle":6576,"pflich":6577,"pft</w>":6578,"pfund</w>":6579,"ph":6580,"ph</w>":6581,"phan":6582,"pharma":6583,"phase</w>":6584,"phen":6585,"phen</w>":6586,"phenomen":6587,"phenomenon</w>":6588,"pher":6589,"phi":6590,"phic</w>":6591,"phil":6592,"phili":6593,"philosop":6594,"philosoph":6595,"pho":6596,"phone</w>":6597,"phones</w>":6598,"phosp":6599,"phot":6600,"photo":6601,"photo</w>":6602,"photogra":6603,"photograph":6604,"photograph</w>":6605,"photographs</w>":6606,"photos</w>":6607,"phr":6608,"phy":6609,"physi":6610,"physical</w>":6611,"physics</w>":6612,"physik</w>":6613,"physiker</w>":6614,"phän":6615,"phänomen</w>":6616,"pi":6617,"pian":6618,"piano</w>":6619,"pic":6620,"pick</w>":6621,"picked</w>":6622,"picture</w>":6623,"pictures</w>":6624,"pid</w>":6625,"pie":6626,"piece</w>":6627,"pieces</w>":6628,"pig":6629,"pil":6630,"pilot</w>":6631,"pin":6632,"ping</w>":6633,"pingu":6634,"pir":6635,"pit":6636,"pite</w>":6637,"pl":6638,"pla":6639,"plac":6640,"place</w>":6641,"placed</w>":6642,"places</w>":6643,"plan":6644,"plan</w>":6645,"plane":6646,"plane</w>":6647,"planes</w>":6648,"planet":6649,"planet</w>":6650,"planeten</w>":6651,"planets</w>":6652,"planning</w>":6653,"plans</w>":6654,"plant</w>":6655,"plants</w>":6656,"plasti":6657,"plastic</w>":6658,"plat":6659,"platform</w>":6660,"platt":6661,"platz</w>":6662,"play":6663,"play</w>":6664,"played</w>":6665,"player</w>":6666,"players</w>":6667,"playing</w>":6668,"plays</w>":6669,"ple":6670,"ple</w>":6671,"pleas":6672,"please</w>":6673,"pleasure</w>":6674,"ples</w>":6675,"pli":6676,"plo":6677,"plu":6678,"plus</w>":6679,"plä":6680,"plö":6681,"plötzlich</w>":6682,"pment</w>":6683,"po":6684,"poe":6685,"poetry</w>":6686,"poin":6687,"point</w>":6688,"points</w>":6689,"pol":6690,"pole</w>":6691,"poli":6692,"police</w>":6693,"policy</w>":6694,"polio</w>":6695,"politi":6696,"political</w>":6697,"politicians</w>":6698,"politics</w>":6699,"politik</w>":6700,"politiker</w>":6701,"politische</w>":6702,"politischen</w>":6703,"polizei</w>":6704,"pollen</w>":6705,"pollu":6706,"pollution</w>":6707,"poly":6708,"pon":6709,"pon</w>":6710,"pool</w>":6711,"poor":6712,"poor</w>":6713,"pop</w>":6714,"popu":6715,"popul":6716,"popular</w>":6717,"population</w>":6718,"por":6719,"port":6720,"port</w>":6721,"portra":6722,"pos":6723,"pose</w>":6724,"posed</w>":6725,"posi":6726,"posite</w>":6727,"position</w>":6728,"positive</w>":6729,"possi":6730,"possibilities</w>":6731,"possibility</w>":6732,"possible</w>":6733,"possibly</w>":6734,"post":6735,"post-":6736,"post</w>":6737,"poster</w>":6738,"poten":6739,"potential</w>":6740,"potenzi":6741,"pounds</w>":6742,"pover":6743,"poverty</w>":6744,"power":6745,"power</w>":6746,"powered</w>":6747,"powerful</w>":6748,"pp":6749,"ppe</w>":6750,"pped</w>":6751,"ppen</w>":6752,"pping</w>":6753,"ppt</w>":6754,"pr":6755,"pra":6756,"prac":6757,"practic":6758,"practical</w>":6759,"practice</w>":6760,"prakti":6761,"praktisch</w>":6762,"pre":6763,"pre-":6764,"predi":6765,"predic":6766,"predict</w>":6767,"preg":6768,"prei":6769,"preis</w>":6770,"prepar":6771,"prepared</w>":6772,"pres":6773,"present</w>":6774,"preser":6775,"presi":6776,"president</w>":6777,"press</w>":6778,"presse</w>":6779,"pressure</w>":6780,"pretty</w>":6781,"prevent</w>":6782,"previ":6783,"previous</w>":6784,"pri":6785,"price</w>":6786,"primary</w>":6787,"prime</w>":6788,"primi":6789,"prin":6790,"princi":6791,"principle</w>":6792,"principles</w>":6793,"print</w>":6794,"prinzi":6795,"prinzip</w>":6796,"prinzipi":6797,"prinzipien</w>":6798,"pris":6799,"prise</w>":6800,"prison</w>":6801,"priv":6802,"privat":6803,"private</w>":6804,"privi":6805,"prize</w>":6806,"pro":6807,"pro</w>":6808,"prob":6809,"probably</w>":6810,"probe</w>":6811,"proben</w>":6812,"probieren</w>":6813,"proble":6814,"problem</w>":6815,"probleme</w>":6816,"problemen</w>":6817,"problems</w>":6818,"proce":6819,"process":6820,"process</w>":6821,"processes</w>":6822,"produ":6823,"produce</w>":6824,"produced</w>":6825,"producing</w>":6826,"product</w>":6827,"production</w>":6828,"productive</w>":6829,"products</w>":6830,"produk":6831,"produkt</w>":6832,"produkte</w>":6833,"produktion</w>":6834,"produzieren</w>":6835,"produziert</w>":6836,"prof":6837,"profess":6838,"professi":6839,"profession":6840,"professional</w>":6841,"professor</w>":6842,"profi":6843,"profit</w>":6844,"profound</w>":6845,"progra":6846,"program":6847,"program</w>":6848,"programm</w>":6849,"programme</w>":6850,"programs</w>":6851,"progress</w>":6852,"proje":6853,"project</w>":6854,"projects</w>":6855,"projekt</w>":6856,"projekte</w>":6857,"promis":6858,"promise</w>":6859,"prop":6860,"proper":6861,"properties</w>":6862,"property</w>":6863,"propor":6864,"prot":6865,"prote":6866,"protect</w>":6867,"protection</w>":6868,"protein</w>":6869,"proteins</w>":6870,"proto":6871,"protot":6872,"prototyp":6873,"proud</w>":6874,"prove</w>":6875,"provi":6876,"provide</w>":6877,"proz":6878,"prozent</w>":6879,"prozess</w>":6880,"prä":6881,"präsen":6882,"präsent":6883,"präsentation</w>":6884,"präsentieren</w>":6885,"präsentiert</w>":6886,"präsi":6887,"präsident</w>":6888,"prü":6889,"ps</w>":6890,"psy":6891,"psych":6892,"psychi":6893,"psycho":6894,"psychology</w>":6895,"pt</w>":6896,"ption</w>":6897,"pu":6898,"publi":6899,"public</w>":6900,"publik":6901,"publikum</w>":6902,"published</w>":6903,"pul":6904,"pull</w>":6905,"pulled</w>":6906,"pump":6907,"pun":6908,"punkt</w>":6909,"punkte</w>":6910,"pur":6911,"purpose</w>":6912,"pus":6913,"pus</w>":6914,"push</w>":6915,"put</w>":6916,"puts</w>":6917,"putting</w>":6918,"puzz":6919,"py":6920,"pyrami":6921,"pä":6922,"q":6923,"q</w>":6924,"qu":6925,"qua":6926,"quad":6927,"quali":6928,"quality</w>":6929,"qualität</w>":6930,"quant":6931,"quanti":6932,"quar":6933,"quas":6934,"quasi</w>":6935,"que":6936,"que</w>":6937,"queen</w>":6938,"quelle</w>":6939,"quellen</w>":6940,"ques</w>":6941,"questi":6942,"question</w>":6943,"questions</w>":6944,"qui":6945,"quick":6946,"quick</w>":6947,"quickly</w>":6948,"quie":6949,"quite</w>":6950,"quot":6951,"quote</w>":6952,"r":6953,"r</w>":6954,"ra":6955,"ra</w>":6956,"rab":6957,"race</w>":6958,"rad":6959,"rad</w>":6960,"radi":6961,"radiation</w>":6962,"radical</w>":6963,"radik":6964,"radio</w>":6965,"raft</w>":6966,"rahmen</w>":6967,"raid</w>":6968,"rain":6969,"rain</w>":6970,"rais":6971,"raise</w>":6972,"raised</w>":6973,"raising</w>":6974,"ral</w>":6975,"rami":6976,"ran":6977,"ran</w>":6978,"rand":6979,"rand</w>":6980,"random</w>":6981,"range</w>":6982,"rant</w>":6983,"rants</w>":6984,"rapi":6985,"rare</w>":6986,"ras":6987,"rat":6988,"rat</w>":6989,"rate</w>":6990,"raten</w>":6991,"rates</w>":6992,"rather</w>":6993,"ration":6994,"ration</w>":6995,"rational</w>":6996,"rau":6997,"raum":6998,"raum</w>":6999,"raus":7000,"raus</w>":7001,"ray</w>":7002,"rb</w>":7003,"rd</w>":7004,"re":7005,"re-":7006,"re</w>":7007,"reach":7008,"reach</w>":7009,"reaction</w>":7010,"read":7011,"read</w>":7012,"reading</w>":7013,"ready</w>":7014,"reagieren</w>":7015,"reak":7016,"reaktion</w>":7017,"real":7018,"real</w>":7019,"reali":7020,"reality</w>":7021,"realität</w>":7022,"realize</w>":7023,"realized</w>":7024,"really</w>":7025,"reas":7026,"reason</w>":7027,"reasons</w>":7028,"rec":7029,"recei":7030,"received</w>":7031,"recent</w>":7032,"recently</w>":7033,"rech":7034,"rechen":7035,"recht":7036,"recht</w>":7037,"rechte</w>":7038,"rechten</w>":7039,"rechts":7040,"rechts</w>":7041,"reci":7042,"recogni":7043,"recognize</w>":7044,"recor":7045,"record</w>":7046,"rect</w>":7047,"recy":7048,"recycl":7049,"red":7050,"red</w>":7051,"rede</w>":7052,"reden</w>":7053,"redu":7054,"reduce</w>":7055,"reduzieren</w>":7056,"refer":7057,"refle":7058,"reg":7059,"regel":7060,"regel</w>":7061,"regeln</w>":7062,"regen":7063,"regen</w>":7064,"regi":7065,"regierung</w>":7066,"regierungen</w>":7067,"region</w>":7068,"regionen</w>":7069,"regu":7070,"regul":7071,"regular</w>":7072,"rei":7073,"reich":7074,"reich</w>":7075,"reiche</w>":7076,"reichen</w>":7077,"reicht</w>":7078,"reihe</w>":7079,"rein":7080,"rein</w>":7081,"reise</w>":7082,"reisen</w>":7083,"rel":7084,"rela":7085,"related</w>":7086,"relation":7087,"relation</w>":7088,"relationship</w>":7089,"relationships</w>":7090,"relativ</w>":7091,"relative</w>":7092,"relatively</w>":7093,"rele":7094,"relev":7095,"relevant</w>":7096,"reli":7097,"religi":7098,"religion</w>":7099,"religious</w>":7100,"religiö":7101,"rely</w>":7102,"rem</w>":7103,"rema":7104,"remark":7105,"remarkable</w>":7106,"reme":7107,"remember</w>":7108,"remin":7109,"remote</w>":7110,"ren":7111,"ren</w>":7112,"rene":7113,"rennen</w>":7114,"repar":7115,"repe":7116,"replace</w>":7117,"repli":7118,"repor":7119,"report</w>":7120,"repres":7121,"represent</w>":7122,"represents</w>":7123,"repu":7124,"republi":7125,"requ":7126,"requi":7127,"require</w>":7128,"requires</w>":7129,"res":7130,"resear":7131,"research</w>":7132,"researchers</w>":7133,"reser":7134,"resi":7135,"resili":7136,"resol":7137,"resour":7138,"resource</w>":7139,"resources</w>":7140,"respe":7141,"respect</w>":7142,"respon":7143,"respond</w>":7144,"response</w>":7145,"responsi":7146,"responsibility</w>":7147,"responsible</w>":7148,"ress</w>":7149,"ressed</w>":7150,"ressour":7151,"ressourcen</w>":7152,"rest":7153,"rest</w>":7154,"restau":7155,"restaurant</w>":7156,"restaurants</w>":7157,"resul":7158,"result</w>":7159,"resultat</w>":7160,"results</w>":7161,"reti":7162,"retro":7163,"rett":7164,"retten</w>":7165,"return</w>":7166,"reve":7167,"rever":7168,"revol":7169,"revolution":7170,"revolution</w>":7171,"reward</w>":7172,"rhy":7173,"rhyth":7174,"ri":7175,"ri</w>":7176,"rich":7177,"rich</w>":7178,"richard</w>":7179,"richt":7180,"richt</w>":7181,"richten</w>":7182,"richtet</w>":7183,"richti":7184,"richtig</w>":7185,"richtige</w>":7186,"richtigen</w>":7187,"richtung</w>":7188,"richtungen</w>":7189,"rid</w>":7190,"ride</w>":7191,"rie":7192,"rieb</w>":7193,"rieben</w>":7194,"ried</w>":7195,"rief</w>":7196,"rier</w>":7197,"ries":7198,"ries</w>":7199,"riesen":7200,"riesige</w>":7201,"riesigen</w>":7202,"riff</w>":7203,"right</w>":7204,"rights</w>":7205,"rin":7206,"ring":7207,"ring</w>":7208,"rio</w>":7209,"ris":7210,"rise</w>":7211,"risi":7212,"risiken</w>":7213,"risiko</w>":7214,"risk</w>":7215,"risks</w>":7216,"ritu":7217,"ritual</w>":7218,"river</w>":7219,"ro":7220,"road</w>":7221,"roads</w>":7222,"rob":7223,"robert</w>":7224,"robo":7225,"robot":7226,"robot</w>":7227,"roboter</w>":7228,"robots</w>":7229,"rock":7230,"rock</w>":7231,"roh":7232,"role</w>":7233,"roll":7234,"roll</w>":7235,"rolle</w>":7236,"rollen</w>":7237,"roman":7238,"roo":7239,"roof</w>":7240,"room</w>":7241,"rooms</w>":7242,"roots</w>":7243,"rop":7244,"ror</w>":7245,"ross</w>":7246,"rot</w>":7247,"rote</w>":7248,"roten</w>":7249,"rou":7250,"rough":7251,"roughly</w>":7252,"round</w>":7253,"row</w>":7254,"rs</w>":7255,"rt</w>":7256,"ru":7257,"ruf</w>":7258,"rufen</w>":7259,"ruhi":7260,"rul":7261,"rule</w>":7262,"rules</w>":7263,"run":7264,"run</w>":7265,"rund</w>":7266,"running</w>":7267,"runs</w>":7268,"runter</w>":7269,"rup":7270,"ruption</w>":7271,"rural</w>":7272,"rus":7273,"rus</w>":7274,"russi":7275,"ry</w>":7276,"rying</w>":7277,"rä":7278,"rän":7279,"rät":7280,"rätsel</w>":7281,"räume</w>":7282,"rö":7283,"rü":7284,"rück":7285,"rücken</w>":7286,"s":7287,"s-":7288,"s.</w>":7289,"s</w>":7290,"sa":7291,"sa</w>":7292,"saal</w>":7293,"sac":7294,"sach":7295,"sache</w>":7296,"sachen</w>":7297,"sad</w>":7298,"safe":7299,"safe</w>":7300,"safety</w>":7301,"sage</w>":7302,"sagen</w>":7303,"sages</w>":7304,"sagt</w>":7305,"sagte</w>":7306,"sagten</w>":7307,"sah</w>":7308,"sahar":7309,"sahen</w>":7310,"said</w>":7311,"sal":7312,"sal</w>":7313,"sam":7314,"sam</w>":7315,"same</w>":7316,"samen</w>":7317,"samer</w>":7318,"samkeit</w>":7319,"samm":7320,"sammeln</w>":7321,"san":7322,"san</w>":7323,"sand":7324,"sand</w>":7325,"sands</w>":7326,"sandwi":7327,"sar":7328,"sat":7329,"sat</w>":7330,"satelli":7331,"sation</w>":7332,"satis":7333,"satur":7334,"saturn</w>":7335,"satz</w>":7336,"sau":7337,"sauer":7338,"sauerstoff</w>":7339,"sav":7340,"save</w>":7341,"saved</w>":7342,"saving</w>":7343,"saw</w>":7344,"say</w>":7345,"saying</w>":7346,"says</w>":7347,"saß</w>":7348,"sc":7349,"scale</w>":7350,"scan":7351,"scan</w>":7352,"scap":7353,"scen":7354,"scene</w>":7355,"sch":7356,"sch</w>":7357,"scha":7358,"schaden</w>":7359,"schaf":7360,"schaff":7361,"schaffen</w>":7362,"schafft</w>":7363,"schaft":7364,"schaft</w>":7365,"schaften</w>":7366,"schafts":7367,"schalt":7368,"schalten</w>":7369,"schau":7370,"schau</w>":7371,"schaue</w>":7372,"schauen</w>":7373,"schaut</w>":7374,"schaute</w>":7375,"sche":7376,"sche</w>":7377,"schei":7378,"schein":7379,"scheinen</w>":7380,"scheint</w>":7381,"schen":7382,"schen</w>":7383,"scher</w>":7384,"sches</w>":7385,"schi":7386,"schicht</w>":7387,"schick":7388,"schicken</w>":7389,"schie":7390,"schied</w>":7391,"schieden</w>":7392,"schien</w>":7393,"schiff</w>":7394,"schil":7395,"schimpan":7396,"schimpansen</w>":7397,"schir":7398,"schirm</w>":7399,"schizop":7400,"schizophren":7401,"schl":7402,"schla":7403,"schlafen</w>":7404,"schlag":7405,"schlag</w>":7406,"schlagen</w>":7407,"schle":7408,"schlecht</w>":7409,"schlechte</w>":7410,"schlechten</w>":7411,"schlei":7412,"schli":7413,"schlie":7414,"schließ":7415,"schließen</w>":7416,"schließlich</w>":7417,"schlimm":7418,"schlimmer</w>":7419,"schlu":7420,"schluss":7421,"schluss</w>":7422,"schlä":7423,"schlägt</w>":7424,"schlüs":7425,"schlüssel":7426,"schlüssel</w>":7427,"schme":7428,"schmer":7429,"schmerz</w>":7430,"schmerzen</w>":7431,"schmu":7432,"schn":7433,"schnei":7434,"schneiden</w>":7435,"schnell":7436,"schnell</w>":7437,"schneller</w>":7438,"schni":7439,"schnitt":7440,"schnitt</w>":7441,"scho":7442,"schon</w>":7443,"school</w>":7444,"schools</w>":7445,"schre":7446,"schreck":7447,"schrei":7448,"schreib":7449,"schreiben</w>":7450,"schreibt</w>":7451,"schri":7452,"schrieb</w>":7453,"schrift":7454,"schrift</w>":7455,"schritt":7456,"schritt</w>":7457,"schritte</w>":7458,"schrän":7459,"scht</w>":7460,"schte</w>":7461,"schu":7462,"schuhe</w>":7463,"schul":7464,"schule</w>":7465,"schulen</w>":7466,"schutz":7467,"schutz</w>":7468,"schw":7469,"schwan":7470,"schwar":7471,"schwarze</w>":7472,"schwarzen</w>":7473,"schwe":7474,"schwei":7475,"schwer":7476,"schwer</w>":7477,"schwester</w>":7478,"schwi":7479,"schwier":7480,"schwierig</w>":7481,"schwierigkeiten</w>":7482,"schwimmen</w>":7483,"schwä":7484,"schä":7485,"schätzen</w>":7486,"schö":7487,"schön":7488,"schön</w>":7489,"schöne</w>":7490,"schönen</w>":7491,"schönheit</w>":7492,"schöpf":7493,"schü":7494,"schüler</w>":7495,"schützen</w>":7496,"sci":7497,"science</w>":7498,"scienti":7499,"scientific</w>":7500,"scientist</w>":7501,"scientists</w>":7502,"scop":7503,"scot":7504,"scrat":7505,"scre":7506,"screen</w>":7507,"scri":7508,"sculp":7509,"se":7510,"se-":7511,"se</w>":7512,"sea</w>":7513,"sear":7514,"search</w>":7515,"seas":7516,"seat</w>":7517,"sec":7518,"sechs</w>":7519,"secon":7520,"second</w>":7521,"seconds</w>":7522,"secre":7523,"secret</w>":7524,"section</w>":7525,"sector</w>":7526,"security</w>":7527,"sed</w>":7528,"see":7529,"see</w>":7530,"seeing</w>":7531,"seem":7532,"seem</w>":7533,"seemed</w>":7534,"seems</w>":7535,"seen</w>":7536,"sees</w>":7537,"seh":7538,"sehe</w>":7539,"sehen</w>":7540,"sehr</w>":7541,"sei":7542,"sei</w>":7543,"seien</w>":7544,"sein</w>":7545,"seine</w>":7546,"seinem</w>":7547,"seinen</w>":7548,"seiner</w>":7549,"seines</w>":7550,"seit":7551,"seit</w>":7552,"seitdem</w>":7553,"seite</w>":7554,"seiten</w>":7555,"seits</w>":7556,"sektor</w>":7557,"sekunde</w>":7558,"sekunden</w>":7559,"sel":7560,"sel</w>":7561,"selb":7562,"selbe</w>":7563,"selben</w>":7564,"selber</w>":7565,"selbst":7566,"selbst</w>":7567,"selbstverständlich</w>":7568,"sele":7569,"self-":7570,"self</w>":7571,"sell</w>":7572,"selling</w>":7573,"seln</w>":7574,"selten</w>":7575,"selts":7576,"seltsam</w>":7577,"selves</w>":7578,"sely</w>":7579,"sen":7580,"sen</w>":7581,"send</w>":7582,"sende</w>":7583,"senden</w>":7584,"sending</w>":7585,"sense</w>":7586,"senses</w>":7587,"sensi":7588,"sensitive</w>":7589,"sensor":7590,"sent":7591,"sent</w>":7592,"sentence</w>":7593,"sep":7594,"separ":7595,"separate</w>":7596,"september</w>":7597,"sequ":7598,"sequen":7599,"sequence</w>":7600,"sequences</w>":7601,"sequenz</w>":7602,"sequenzen</w>":7603,"ser":7604,"ser</w>":7605,"seri":7606,"serie</w>":7607,"series</w>":7608,"serious</w>":7609,"seriously</w>":7610,"serve</w>":7611,"service</w>":7612,"services</w>":7613,"ses</w>":7614,"set</w>":7615,"sets</w>":7616,"sett":7617,"setting</w>":7618,"setz":7619,"setzen</w>":7620,"setzt</w>":7621,"setzte</w>":7622,"setzten</w>":7623,"setzung</w>":7624,"seven</w>":7625,"sever":7626,"several</w>":7627,"sex":7628,"sex</w>":7629,"sexu":7630,"sexual</w>":7631,"sey</w>":7632,"sh":7633,"sh</w>":7634,"sha":7635,"shall</w>":7636,"shang":7637,"shape</w>":7638,"shapes</w>":7639,"shar":7640,"share</w>":7641,"shared</w>":7642,"shares</w>":7643,"sharing</w>":7644,"shark</w>":7645,"sharks</w>":7646,"she":7647,"she</w>":7648,"shed</w>":7649,"sheit</w>":7650,"shel":7651,"shi":7652,"shif":7653,"shift</w>":7654,"ship</w>":7655,"ships</w>":7656,"shir":7657,"sho":7658,"shoes</w>":7659,"shop</w>":7660,"shor":7661,"short</w>":7662,"shot</w>":7663,"shou":7664,"shoul":7665,"should</w>":7666,"shouldn</w>":7667,"show</w>":7668,"showed</w>":7669,"showing</w>":7670,"shown</w>":7671,"shows</w>":7672,"shu":7673,"si":7674,"sich":7675,"sich</w>":7676,"sicher":7677,"sicher</w>":7678,"sicherheit</w>":7679,"sicherheits":7680,"sicherlich</w>":7681,"sicht":7682,"sicht</w>":7683,"sichten</w>":7684,"sichti":7685,"sichtlich</w>":7686,"sick</w>":7687,"side</w>":7688,"sides</w>":7689,"sie":7690,"sie</w>":7691,"sieben</w>":7692,"sieht</w>":7693,"sieren</w>":7694,"siert</w>":7695,"sig":7696,"sight</w>":7697,"sigkeit</w>":7698,"sign":7699,"sign</w>":7700,"signal</w>":7701,"signale</w>":7702,"signals</w>":7703,"signi":7704,"signific":7705,"significant</w>":7706,"sil":7707,"silic":7708,"silicon</w>":7709,"silk</w>":7710,"sim":7711,"simil":7712,"similar</w>":7713,"simp":7714,"simple</w>":7715,"simpli":7716,"simply</w>":7717,"simu":7718,"simul":7719,"simulation</w>":7720,"sin":7721,"sin</w>":7722,"since</w>":7723,"sind</w>":7724,"sing":7725,"sing</w>":7726,"singen</w>":7727,"single</w>":7728,"sinn":7729,"sinn</w>":7730,"sinne</w>":7731,"sinni":7732,"sion":7733,"sion</w>":7734,"sionen</w>":7735,"sions</w>":7736,"sir</w>":7737,"sis</w>":7738,"sische</w>":7739,"sischen</w>":7740,"sister</w>":7741,"sit</w>":7742,"site</w>":7743,"sites</w>":7744,"sitting</w>":7745,"situ":7746,"situation</w>":7747,"situationen</w>":7748,"sity</w>":7749,"sitz":7750,"sitz</w>":7751,"sitzen</w>":7752,"sitzt</w>":7753,"sive</w>":7754,"six</w>":7755,"size</w>":7756,"sk":7757,"ske":7758,"skelet":7759,"skep":7760,"ski":7761,"skills</w>":7762,"skin</w>":7763,"skla":7764,"skulp":7765,"sky":7766,"sky</w>":7767,"sl":7768,"sla":7769,"sle":7770,"sleep</w>":7771,"sli":7772,"slide</w>":7773,"slightly</w>":7774,"slo":7775,"slow":7776,"slow</w>":7777,"slowly</w>":7778,"sm":7779,"small":7780,"small</w>":7781,"smaller</w>":7782,"smar":7783,"smart</w>":7784,"smell</w>":7785,"smit":7786,"smith</w>":7787,"smo":7788,"sna":7789,"so":7790,"so-":7791,"so</w>":7792,"sobald</w>":7793,"soc":7794,"soci":7795,"social</w>":7796,"socie":7797,"societies</w>":7798,"society</w>":7799,"sodass</w>":7800,"sofort</w>":7801,"soft":7802,"soft</w>":7803,"software</w>":7804,"sogar</w>":7805,"sogenan":7806,"sohn</w>":7807,"soil</w>":7808,"sol":7809,"solange</w>":7810,"solar":7811,"solar</w>":7812,"solch</w>":7813,"solche</w>":7814,"solchen</w>":7815,"solcher</w>":7816,"sold</w>":7817,"soldaten</w>":7818,"soldi":7819,"soldiers</w>":7820,"soli":7821,"soll":7822,"soll</w>":7823,"sollen</w>":7824,"sollte</w>":7825,"sollten</w>":7826,"solu":7827,"solution</w>":7828,"solutions</w>":7829,"solve</w>":7830,"solved</w>":7831,"solving</w>":7832,"som":7833,"some":7834,"some</w>":7835,"somebody</w>":7836,"somehow</w>":7837,"someone</w>":7838,"something</w>":7839,"sometimes</w>":7840,"somewhere</w>":7841,"somit</w>":7842,"sommer</w>":7843,"son":7844,"son</w>":7845,"sonder":7846,"sondern</w>":7847,"song</w>":7848,"songs</w>":7849,"sonne</w>":7850,"sonnen":7851,"sons</w>":7852,"sonst</w>":7853,"soon</w>":7854,"sop":7855,"sophi":7856,"sophisti":7857,"sor":7858,"sor</w>":7859,"sorge</w>":7860,"sorgen</w>":7861,"sorry</w>":7862,"sort</w>":7863,"sorts</w>":7864,"sou":7865,"sound</w>":7866,"sounds</w>":7867,"sour":7868,"source</w>":7869,"sources</w>":7870,"south</w>":7871,"southern</w>":7872,"soviel</w>":7873,"sowas</w>":7874,"sowie</w>":7875,"sowohl</w>":7876,"sozi":7877,"sozial":7878,"soziale</w>":7879,"sozialen</w>":7880,"sozusagen</w>":7881,"sp":7882,"spa":7883,"spac":7884,"space</w>":7885,"spaces</w>":7886,"span":7887,"spaper</w>":7888,"spar":7889,"sparen</w>":7890,"spaß</w>":7891,"spe":7892,"spea":7893,"speak":7894,"speak</w>":7895,"speaking</w>":7896,"spec":7897,"speci":7898,"special</w>":7899,"species</w>":7900,"specific</w>":7901,"specifically</w>":7902,"spectrum</w>":7903,"spee":7904,"speech</w>":7905,"speed</w>":7906,"spei":7907,"spek":7908,"spen":7909,"spend</w>":7910,"spending</w>":7911,"spent</w>":7912,"sper":7913,"spezi":7914,"spezies</w>":7915,"sphere</w>":7916,"sphäre</w>":7917,"spi":7918,"spie":7919,"spiegel":7920,"spiegel</w>":7921,"spiel":7922,"spiel</w>":7923,"spiele</w>":7924,"spielen</w>":7925,"spieler</w>":7926,"spielt</w>":7927,"spielte</w>":7928,"spin":7929,"spir":7930,"spirit</w>":7931,"spiritu":7932,"spit":7933,"spitze</w>":7934,"spli":7935,"spo":7936,"spoke</w>":7937,"spon":7938,"spor":7939,"sport</w>":7940,"spot</w>":7941,"spr":7942,"spra":7943,"sprach":7944,"sprach</w>":7945,"sprache</w>":7946,"sprachen</w>":7947,"spre":7948,"spread</w>":7949,"sprech":7950,"spreche</w>":7951,"sprechen</w>":7952,"spricht</w>":7953,"spring</w>":7954,"springen</w>":7955,"spro":7956,"spru":7957,"spruch</w>":7958,"sprü":7959,"spu":7960,"spun":7961,"spä":7962,"später</w>":7963,"spür":7964,"spüren</w>":7965,"squ":7966,"square</w>":7967,"ss":7968,"ss</w>":7969,"sse</w>":7970,"ssen</w>":7971,"sser</w>":7972,"ssi":7973,"sst</w>":7974,"st":7975,"st-":7976,"st</w>":7977,"sta":7978,"staat":7979,"staat</w>":7980,"staaten</w>":7981,"stab":7982,"stab</w>":7983,"stabili":7984,"stable</w>":7985,"stac":7986,"stad":7987,"stadt</w>":7988,"staf":7989,"stag</w>":7990,"stage</w>":7991,"stal":7992,"stam":7993,"stamm":7994,"stammt</w>":7995,"stammzellen</w>":7996,"stan":7997,"stan</w>":7998,"stance</w>":7999,"stances</w>":8000,"stand":8001,"stand</w>":8002,"standar":8003,"standard</w>":8004,"standards</w>":8005,"standen</w>":8006,"standing</w>":8007,"stands</w>":8008,"stanford</w>":8009,"stant</w>":8010,"star":8011,"star</w>":8012,"starb</w>":8013,"stark</w>":8014,"starke</w>":8015,"stars</w>":8016,"start</w>":8017,"started</w>":8018,"starten</w>":8019,"starting</w>":8020,"starts</w>":8021,"stat":8022,"state</w>":8023,"states</w>":8024,"stati":8025,"station</w>":8026,"statisti":8027,"statistics</w>":8028,"statistiken</w>":8029,"statt":8030,"statt</w>":8031,"stattdessen</w>":8032,"status</w>":8033,"stau":8034,"stay</w>":8035,"ste":8036,"ste</w>":8037,"stead</w>":8038,"stech":8039,"stecken</w>":8040,"steckt</w>":8041,"sted</w>":8042,"steel</w>":8043,"steh":8044,"stehe</w>":8045,"stehen</w>":8046,"steht</w>":8047,"stei":8048,"steigen</w>":8049,"steigt</w>":8050,"stein":8051,"stein</w>":8052,"steine</w>":8053,"stell":8054,"stelle</w>":8055,"stellen</w>":8056,"steller</w>":8057,"stellt</w>":8058,"stellte</w>":8059,"stellten</w>":8060,"stellung</w>":8061,"stellungen</w>":8062,"stem</w>":8063,"sten":8064,"sten</w>":8065,"stens</w>":8066,"stent</w>":8067,"stenz</w>":8068,"step</w>":8069,"steps</w>":8070,"ster":8071,"ster</w>":8072,"sterb":8073,"sterben</w>":8074,"stere":8075,"stern":8076,"stern</w>":8077,"sterne</w>":8078,"stero":8079,"sters</w>":8080,"stert</w>":8081,"stes</w>":8082,"stet</w>":8083,"steu":8084,"steuern</w>":8085,"steve</w>":8086,"steven</w>":8087,"sth":8088,"sti":8089,"stian</w>":8090,"stic</w>":8091,"stick</w>":8092,"stics</w>":8093,"stie":8094,"stieg</w>":8095,"stif":8096,"stig</w>":8097,"stige</w>":8098,"stigen</w>":8099,"stil</w>":8100,"still</w>":8101,"stim":8102,"stimm":8103,"stimme</w>":8104,"stimmen</w>":8105,"stimmt</w>":8106,"stimmung</w>":8107,"stimu":8108,"stimul":8109,"stin":8110,"stin</w>":8111,"sting</w>":8112,"stir":8113,"stisch</w>":8114,"stische</w>":8115,"stischen</w>":8116,"stit":8117,"stly</w>":8118,"sto":8119,"stock":8120,"stock</w>":8121,"stoff":8122,"stoff</w>":8123,"stoffe</w>":8124,"stoffen</w>":8125,"stol":8126,"stolz</w>":8127,"stom":8128,"ston</w>":8129,"stone</w>":8130,"stood</w>":8131,"stop":8132,"stop</w>":8133,"stopp":8134,"stopped</w>":8135,"stor":8136,"storben</w>":8137,"store</w>":8138,"stories</w>":8139,"stors</w>":8140,"story</w>":8141,"stoßen</w>":8142,"str":8143,"stra":8144,"strahlung</w>":8145,"straight</w>":8146,"stran":8147,"strand</w>":8148,"strange</w>":8149,"strat":8150,"strate":8151,"strate</w>":8152,"strated</w>":8153,"strateg":8154,"strategi":8155,"strategie</w>":8156,"strategy</w>":8157,"stration</w>":8158,"straß":8159,"straße</w>":8160,"straßen":8161,"straßen</w>":8162,"stre":8163,"stream</w>":8164,"streben</w>":8165,"street</w>":8166,"streets</w>":8167,"strei":8168,"streng":8169,"strength</w>":8170,"stress</w>":8171,"stri":8172,"string</w>":8173,"stro":8174,"strom":8175,"strom</w>":8176,"stron":8177,"strong</w>":8178,"stru":8179,"struc":8180,"structure</w>":8181,"structures</w>":8182,"strug":8183,"struggle</w>":8184,"struk":8185,"struktur</w>":8186,"strukturen</w>":8187,"stry</w>":8188,"strö":8189,"sts</w>":8190,"stu":8191,"stuck</w>":8192,"stud":8193,"student</w>":8194,"studenten</w>":8195,"students</w>":8196,"studi":8197,"studie</w>":8198,"studied</w>":8199,"studien</w>":8200,"studieren</w>":8201,"studies</w>":8202,"studio</w>":8203,"study</w>":8204,"studying</w>":8205,"stufe</w>":8206,"stuff</w>":8207,"stuhl</w>":8208,"stun":8209,"stunde</w>":8210,"stunden</w>":8211,"stung</w>":8212,"stupid</w>":8213,"stur":8214,"sty":8215,"sty</w>":8216,"style</w>":8217,"stä":8218,"städ":8219,"städte</w>":8220,"städten</w>":8221,"stän":8222,"stände</w>":8223,"ständen</w>":8224,"ständig</w>":8225,"stär":8226,"stärke</w>":8227,"stärken</w>":8228,"stärker</w>":8229,"stö":8230,"stör":8231,"stü":8232,"stück</w>":8233,"stücke</w>":8234,"stür":8235,"su":8236,"sub":8237,"sub-":8238,"subje":8239,"subject</w>":8240,"substan":8241,"suc":8242,"succe":8243,"success":8244,"success</w>":8245,"successful</w>":8246,"such</w>":8247,"suche</w>":8248,"suchen</w>":8249,"sucht</w>":8250,"sud":8251,"sudden</w>":8252,"suddenly</w>":8253,"sue</w>":8254,"suff":8255,"suffering</w>":8256,"sug":8257,"sugar</w>":8258,"sugge":8259,"suggest":8260,"suggest</w>":8261,"suggests</w>":8262,"suit</w>":8263,"sum":8264,"sum</w>":8265,"summer</w>":8266,"sun":8267,"sun</w>":8268,"sung</w>":8269,"sungen</w>":8270,"sup":8271,"super":8272,"super</w>":8273,"supp":8274,"supply</w>":8275,"suppor":8276,"support</w>":8277,"suppose</w>":8278,"supposed</w>":8279,"sur":8280,"sure</w>":8281,"surface</w>":8282,"surge":8283,"surgery</w>":8284,"surpris":8285,"surprise</w>":8286,"surprised</w>":8287,"surprising</w>":8288,"surro":8289,"survey</w>":8290,"survi":8291,"survival</w>":8292,"survive</w>":8293,"sus":8294,"susta":8295,"sustain":8296,"sustainable</w>":8297,"sw</w>":8298,"swa":8299,"swe":8300,"sweise</w>":8301,"swi":8302,"swim</w>":8303,"switch</w>":8304,"sy":8305,"sy</w>":8306,"syl":8307,"sym":8308,"symbo":8309,"symbol</w>":8310,"symme":8311,"symp":8312,"symptom":8313,"syn":8314,"syndro":8315,"syste":8316,"system</w>":8317,"systeme</w>":8318,"systemen</w>":8319,"systems</w>":8320,"sz":8321,"sä":8322,"sätze</w>":8323,"säu":8324,"sü":8325,"süd":8326,"südafri":8327,"t":8328,"t-":8329,"t</w>":8330,"ta":8331,"ta</w>":8332,"tab":8333,"table</w>":8334,"tables</w>":8335,"tac":8336,"tag":8337,"tag</w>":8338,"tage</w>":8339,"tagen</w>":8340,"tages</w>":8341,"tail</w>":8342,"tain":8343,"tain</w>":8344,"tains</w>":8345,"take</w>":8346,"taken</w>":8347,"takes</w>":8348,"taking</w>":8349,"tal":8350,"tal</w>":8351,"tale</w>":8352,"talent</w>":8353,"tali":8354,"taliban</w>":8355,"tality</w>":8356,"talk</w>":8357,"talked</w>":8358,"talking</w>":8359,"talks</w>":8360,"tam":8361,"tan":8362,"tan</w>":8363,"tane":8364,"tanz":8365,"tanz</w>":8366,"tar":8367,"target</w>":8368,"tas":8369,"tasche</w>":8370,"task</w>":8371,"taste</w>":8372,"tat":8373,"tat</w>":8374,"tate</w>":8375,"taten</w>":8376,"tation</w>":8377,"tations</w>":8378,"tats":8379,"tatsache</w>":8380,"tatsächlich</w>":8381,"tau":8382,"tauchen</w>":8383,"taught</w>":8384,"taus":8385,"tausend</w>":8386,"tausende</w>":8387,"tausenden</w>":8388,"tax":8389,"tch</w>":8390,"te":8391,"te</w>":8392,"tea":8393,"teach":8394,"teach</w>":8395,"teacher</w>":8396,"teachers</w>":8397,"teaching</w>":8398,"team</w>":8399,"teams</w>":8400,"tech":8401,"tech</w>":8402,"techn":8403,"techni":8404,"technical</w>":8405,"technik</w>":8406,"techniques</w>":8407,"technolog":8408,"technologi":8409,"technologie</w>":8410,"technologien</w>":8411,"technologies</w>":8412,"technology</w>":8413,"ted":8414,"ted-":8415,"ted</w>":8416,"tedx":8417,"tee</w>":8418,"teen":8419,"teenager</w>":8420,"teeth</w>":8421,"tei":8422,"teil":8423,"teil</w>":8424,"teilchen</w>":8425,"teile</w>":8426,"teilen</w>":8427,"teili":8428,"teilneh":8429,"teilt</w>":8430,"teilung</w>":8431,"tel":8432,"tel</w>":8433,"tele":8434,"telef":8435,"telefon":8436,"telefon</w>":8437,"teles":8438,"telescop":8439,"telev":8440,"television</w>":8441,"tell</w>":8442,"telling</w>":8443,"tells</w>":8444,"tely</w>":8445,"tem":8446,"tem</w>":8447,"tember</w>":8448,"temp":8449,"temper":8450,"temperatur</w>":8451,"temperature</w>":8452,"tempor":8453,"ten":8454,"ten</w>":8455,"tend</w>":8456,"tenden":8457,"tens</w>":8458,"tent":8459,"tent</w>":8460,"ter":8461,"ter-":8462,"ter</w>":8463,"tere</w>":8464,"teren</w>":8465,"teri":8466,"terie</w>":8467,"term</w>":8468,"terms</w>":8469,"tern":8470,"tern</w>":8471,"ternal</w>":8472,"terr":8473,"terri":8474,"terrible</w>":8475,"terror":8476,"terrori":8477,"ters</w>":8478,"tert</w>":8479,"tery</w>":8480,"tes":8481,"tes</w>":8482,"test</w>":8483,"teste</w>":8484,"testen</w>":8485,"testing</w>":8486,"tests</w>":8487,"tet</w>":8488,"tete</w>":8489,"teten</w>":8490,"teu":8491,"teuer</w>":8492,"teure</w>":8493,"tex":8494,"tex</w>":8495,"texas</w>":8496,"text":8497,"text</w>":8498,"th":8499,"th-":8500,"th</w>":8501,"than":8502,"than</w>":8503,"thank</w>":8504,"thanks</w>":8505,"that</w>":8506,"the":8507,"the-":8508,"the</w>":8509,"theater</w>":8510,"thei":8511,"their</w>":8512,"theit</w>":8513,"them":8514,"them</w>":8515,"thema</w>":8516,"theme</w>":8517,"themen</w>":8518,"themselves</w>":8519,"then</w>":8520,"theor":8521,"theore":8522,"theorie</w>":8523,"theory</w>":8524,"ther":8525,"ther</w>":8526,"therap":8527,"therapie</w>":8528,"therapy</w>":8529,"there":8530,"there</w>":8531,"therefore</w>":8532,"thern</w>":8533,"thers</w>":8534,"thes":8535,"these</w>":8536,"thesis</w>":8537,"thetic</w>":8538,"they</w>":8539,"thi":8540,"thin":8541,"thin</w>":8542,"thing</w>":8543,"things</w>":8544,"think</w>":8545,"thinking</w>":8546,"thinks</w>":8547,"thir":8548,"third</w>":8549,"this</w>":8550,"tho":8551,"thom":8552,"thomas</w>":8553,"those</w>":8554,"thou":8555,"though</w>":8556,"thought</w>":8557,"thoughts</w>":8558,"thousand</w>":8559,"thousands</w>":8560,"thr":8561,"thre":8562,"threat</w>":8563,"three-":8564,"three</w>":8565,"thri":8566,"thro":8567,"through":8568,"through</w>":8569,"throughout</w>":8570,"throw</w>":8571,"ths</w>":8572,"thy</w>":8573,"ti":8574,"ti</w>":8575,"tial</w>":8576,"tially</w>":8577,"tic":8578,"tic</w>":8579,"tical</w>":8580,"tically</w>":8581,"tice</w>":8582,"tics</w>":8583,"tie":8584,"tie</w>":8585,"tief":8586,"tief</w>":8587,"tiefe</w>":8588,"tier":8589,"tier</w>":8590,"tiere</w>":8591,"tieren</w>":8592,"tiert</w>":8593,"tierte</w>":8594,"ties</w>":8595,"tig":8596,"tig</w>":8597,"tige</w>":8598,"tigen</w>":8599,"tiger</w>":8600,"tiges</w>":8601,"tigkeit</w>":8602,"tigt</w>":8603,"tigte</w>":8604,"tigung</w>":8605,"tik</w>":8606,"tiker</w>":8607,"til</w>":8608,"tili":8609,"tim</w>":8610,"time</w>":8611,"times</w>":8612,"tin":8613,"tin</w>":8614,"ting</w>":8615,"tiny</w>":8616,"tion":8617,"tion</w>":8618,"tional</w>":8619,"tioned</w>":8620,"tionen</w>":8621,"tions":8622,"tions</w>":8623,"tis":8624,"tis</w>":8625,"tisch</w>":8626,"tische</w>":8627,"tischen</w>":8628,"tischer</w>":8629,"tish</w>":8630,"tissue</w>":8631,"titel</w>":8632,"titude</w>":8633,"tiv":8634,"tiv</w>":8635,"tive</w>":8636,"tively</w>":8637,"tiven</w>":8638,"tiver</w>":8639,"tives</w>":8640,"tivi":8641,"tivity</w>":8642,"tivität</w>":8643,"tle</w>":8644,"tles</w>":8645,"tlich</w>":8646,"tlichen</w>":8647,"tly</w>":8648,"tnis</w>":8649,"tnisse</w>":8650,"to":8651,"to-":8652,"to</w>":8653,"tober</w>":8654,"tochter</w>":8655,"tod</w>":8656,"today</w>":8657,"todes":8658,"toge":8659,"together</w>":8660,"toi":8661,"toile":8662,"tol":8663,"told</w>":8664,"toler":8665,"toll":8666,"toll</w>":8667,"tolle</w>":8668,"tom":8669,"tom</w>":8670,"tomorrow</w>":8671,"ton":8672,"ton</w>":8673,"tons</w>":8674,"tony</w>":8675,"too</w>":8676,"took</w>":8677,"tool</w>":8678,"tools</w>":8679,"top":8680,"top</w>":8681,"tops</w>":8682,"tor":8683,"tor</w>":8684,"toren</w>":8685,"tors</w>":8686,"tory</w>":8687,"tot":8688,"tot</w>":8689,"total</w>":8690,"totally</w>":8691,"toten</w>":8692,"tou":8693,"touch</w>":8694,"tough</w>":8695,"tour":8696,"tour</w>":8697,"toward</w>":8698,"towards</w>":8699,"town</w>":8700,"tox":8701,"tr":8702,"tra":8703,"tra</w>":8704,"track</w>":8705,"tracking</w>":8706,"trade</w>":8707,"tradi":8708,"tradition":8709,"tradition</w>":8710,"traditional</w>":8711,"traditionellen</w>":8712,"traf</w>":8713,"traff":8714,"traffic</w>":8715,"trag":8716,"trag</w>":8717,"trage":8718,"tragen</w>":8719,"train":8720,"train</w>":8721,"trained</w>":8722,"training</w>":8723,"tran":8724,"trans":8725,"transform</w>":8726,"transforma":8727,"transformation</w>":8728,"transi":8729,"transition</w>":8730,"transl":8731,"transp":8732,"transpar":8733,"transplan":8734,"transpor":8735,"transport</w>":8736,"trau":8737,"traum</w>":8738,"trauri":8739,"travel":8740,"travel</w>":8741,"tre":8742,"treat":8743,"treat</w>":8744,"treated</w>":8745,"treatment</w>":8746,"tree</w>":8747,"trees</w>":8748,"treffen</w>":8749,"trei":8750,"treib":8751,"treiben</w>":8752,"treibt</w>":8753,"tremend":8754,"tremendous</w>":8755,"tren":8756,"trend</w>":8757,"trends</w>":8758,"treten</w>":8759,"tri":8760,"trial</w>":8761,"trials</w>":8762,"tribu":8763,"trick</w>":8764,"tricks</w>":8765,"trie":8766,"trie</w>":8767,"trieb</w>":8768,"trieben</w>":8769,"tried</w>":8770,"tries</w>":8771,"trifft</w>":8772,"trilli":8773,"trillion</w>":8774,"trin":8775,"trinken</w>":8776,"trip</w>":8777,"tritt</w>":8778,"tro":8779,"troffen</w>":8780,"trotz":8781,"trotz</w>":8782,"trotzdem</w>":8783,"trou":8784,"trouble</w>":8785,"tru":8786,"true</w>":8787,"trug</w>":8788,"truly</w>":8789,"trum</w>":8790,"trust</w>":8791,"truth</w>":8792,"try</w>":8793,"trying</w>":8794,"trä":8795,"träge</w>":8796,"trägt</w>":8797,"träume</w>":8798,"ts":8799,"ts</w>":8800,"tsam</w>":8801,"tsch":8802,"tsun":8803,"tt":8804,"tt</w>":8805,"tte</w>":8806,"ttel</w>":8807,"tten</w>":8808,"tter":8809,"tter</w>":8810,"ttern</w>":8811,"tting</w>":8812,"ttle</w>":8813,"tty</w>":8814,"tu":8815,"tu</w>":8816,"tual</w>":8817,"tube</w>":8818,"tude</w>":8819,"tue</w>":8820,"tumor":8821,"tumor</w>":8822,"tun":8823,"tun</w>":8824,"tung</w>":8825,"tungen</w>":8826,"tungs":8827,"tur":8828,"tur</w>":8829,"tural</w>":8830,"ture</w>":8831,"tured</w>":8832,"turen</w>":8833,"tures</w>":8834,"turing</w>":8835,"turn</w>":8836,"turned</w>":8837,"turning</w>":8838,"turns</w>":8839,"tus</w>":8840,"tut</w>":8841,"tv</w>":8842,"tw":8843,"twi":8844,"twice</w>":8845,"twitter</w>":8846,"two":8847,"two-":8848,"two</w>":8849,"ty":8850,"ty</w>":8851,"typ":8852,"typ</w>":8853,"type</w>":8854,"typen</w>":8855,"types</w>":8856,"typical</w>":8857,"typically</w>":8858,"tz":8859,"tz</w>":8860,"tze</w>":8861,"tzen</w>":8862,"tzlich</w>":8863,"tzt</w>":8864,"tzu":8865,"tzung</w>":8866,"tä":8867,"täglich</w>":8868,"tät</w>":8869,"täten</w>":8870,"täu":8871,"täusch":8872,"tö":8873,"töten</w>":8874,"tötet</w>":8875,"tü":8876,"tür":8877,"tür</w>":8878,"u":8879,"u-":8880,"u.":8881,"u.k.</w>":8882,"u.n.</w>":8883,"u.s.</w>":8884,"u</w>":8885,"ual</w>":8886,"ually</w>":8887,"ue</w>":8888,"ug":8889,"uganda</w>":8890,"uhr</w>":8891,"ul":8892,"ular</w>":8893,"ully</w>":8894,"ulp":8895,"ult</w>":8896,"ulti":8897,"ultima":8898,"ultimately</w>":8899,"ultra":8900,"um":8901,"um</w>":8902,"umge":8903,"umgeb":8904,"umgebung</w>":8905,"umgehen</w>":8906,"umin":8907,"ums</w>":8908,"umwelt":8909,"umwelt</w>":8910,"umzu":8911,"un":8912,"un</w>":8913,"unabhängi":8914,"unabhängig</w>":8915,"unbe":8916,"unbedingt</w>":8917,"und":8918,"und</w>":8919,"unde</w>":8920,"unded</w>":8921,"unden</w>":8922,"under":8923,"under</w>":8924,"underneath</w>":8925,"understand</w>":8926,"understanding</w>":8927,"understood</w>":8928,"unding</w>":8929,"unds</w>":8930,"une</w>":8931,"uner":8932,"unfall</w>":8933,"unfortunately</w>":8934,"ung":8935,"ung</w>":8936,"unge":8937,"ungefä":8938,"ungefähr</w>":8939,"ungen</w>":8940,"unger</w>":8941,"ungewöhn":8942,"unglaub":8943,"unglaublich</w>":8944,"unglaubliche</w>":8945,"unglaublichen</w>":8946,"ungs":8947,"ungsk":8948,"ungskraft</w>":8949,"ungspro":8950,"uni":8951,"union</w>":8952,"unique</w>":8953,"unit</w>":8954,"united</w>":8955,"unities</w>":8956,"unity</w>":8957,"univer":8958,"universal</w>":8959,"universe</w>":8960,"universi":8961,"university</w>":8962,"universität</w>":8963,"universum</w>":8964,"universums</w>":8965,"unless</w>":8966,"unlike</w>":8967,"unmöglich</w>":8968,"uns":8969,"uns</w>":8970,"unser":8971,"unser</w>":8972,"unsere</w>":8973,"unserem</w>":8974,"unseren</w>":8975,"unserer</w>":8976,"unseres</w>":8977,"unsicht":8978,"unt</w>":8979,"unten</w>":8980,"unter":8981,"unter</w>":8982,"unterhaltung</w>":8983,"unterneh":8984,"unternehmen</w>":8985,"unternehmer</w>":8986,"unterricht</w>":8987,"unterrichten</w>":8988,"unterschei":8989,"unterscheiden</w>":8990,"unterschie":8991,"unterschied":8992,"unterschied</w>":8993,"unterschiede</w>":8994,"unterschiedliche</w>":8995,"unterschiedlichen</w>":8996,"unterstü":8997,"unterstützen</w>":8998,"unterstützung</w>":8999,"untersu":9000,"untersuchen</w>":9001,"untersucht</w>":9002,"untersuchung</w>":9003,"until</w>":9004,"unts</w>":9005,"unusual</w>":9006,"up":9007,"up</w>":9008,"upon</w>":9009,"upp":9010,"ur":9011,"ur</w>":9012,"urban</w>":9013,"ure</w>":9014,"uren</w>":9015,"ures</w>":9016,"uring</w>":9017,"urs</w>":9018,"urspr":9019,"ursprün":9020,"ury</w>":9021,"us":9022,"us-":9023,"us</w>":9024,"usa</w>":9025,"use":9026,"use</w>":9027,"used</w>":9028,"useful</w>":9029,"user</w>":9030,"users</w>":9031,"uses</w>":9032,"ush</w>":9033,"usi":9034,"using</w>":9035,"uss":9036,"uss</w>":9037,"ust</w>":9038,"usual</w>":9039,"usually</w>":9040,"ut</w>":9041,"ute</w>":9042,"uten</w>":9043,"utes</w>":9044,"ution":9045,"ution</w>":9046,"v":9047,"v-":9048,"v</w>":9049,"va":9050,"va</w>":9051,"vable</w>":9052,"vac":9053,"vag":9054,"vagina</w>":9055,"vail":9056,"val":9057,"val</w>":9058,"valent</w>":9059,"valley</w>":9060,"valu":9061,"valuable</w>":9062,"value</w>":9063,"values</w>":9064,"van":9065,"van</w>":9066,"var":9067,"vari":9068,"variety</w>":9069,"various</w>":9070,"vas":9071,"vast</w>":9072,"vat":9073,"vater</w>":9074,"vation</w>":9075,"ve":9076,"ve-":9077,"ve</w>":9078,"ved</w>":9079,"vege":9080,"vehi":9081,"vehicle</w>":9082,"vel":9083,"vel</w>":9084,"vels</w>":9085,"vely</w>":9086,"vement</w>":9087,"ven":9088,"ven</w>":9089,"vent":9090,"vent</w>":9091,"venti":9092,"venue</w>":9093,"ver":9094,"ver</w>":9095,"verab":9096,"verage</w>":9097,"veran":9098,"verantwor":9099,"verantwortlich</w>":9100,"verantwortung</w>":9101,"verb":9102,"verbess":9103,"verbesser":9104,"verbessern</w>":9105,"verbessert</w>":9106,"verbin":9107,"verbinden</w>":9108,"verbindet</w>":9109,"verbindung</w>":9110,"verbindungen</w>":9111,"verblü":9112,"verblüff":9113,"verbra":9114,"verbracht</w>":9115,"verbrachte</w>":9116,"verbrechen</w>":9117,"verbrei":9118,"verbreiten</w>":9119,"verbreitet</w>":9120,"verbringen</w>":9121,"verbunden</w>":9122,"verdam":9123,"verdi":9124,"verdienen</w>":9125,"vered</w>":9126,"verein":9127,"vereinig":9128,"vereinigten</w>":9129,"verfahren</w>":9130,"verfolgen</w>":9131,"verfü":9132,"verfüg":9133,"verfügbar</w>":9134,"verfügung</w>":9135,"verg":9136,"vergan":9137,"vergangenheit</w>":9138,"vergessen</w>":9139,"vergleich</w>":9140,"vergleichen</w>":9141,"vergröß":9142,"verhalten":9143,"verhalten</w>":9144,"verhaltens":9145,"verhindern</w>":9146,"verhäl":9147,"verhältnis</w>":9148,"vering</w>":9149,"verk":9150,"verkauf":9151,"verkaufen</w>":9152,"verkauft</w>":9153,"verkehr":9154,"verkehr</w>":9155,"verknü":9156,"verl":9157,"verlangen</w>":9158,"verlassen</w>":9159,"verletz":9160,"verlieren</w>":9161,"verloren</w>":9162,"verlust</w>":9163,"vermei":9164,"vermitteln</w>":9165,"vermu":9166,"vermutlich</w>":9167,"vermögen</w>":9168,"vern":9169,"verpflich":9170,"verring":9171,"verrück":9172,"verrückt</w>":9173,"vers</w>":9174,"versagen</w>":9175,"versch":9176,"verschie":9177,"verschieden":9178,"verschiedene</w>":9179,"verschiedenen</w>":9180,"verschmu":9181,"verschwinden</w>":9182,"verse</w>":9183,"versi":9184,"version</w>":9185,"versor":9186,"versorgung</w>":9187,"verstand</w>":9188,"verstanden</w>":9189,"verste":9190,"verstehen</w>":9191,"versteht</w>":9192,"verstän":9193,"verständlich</w>":9194,"verständnis</w>":9195,"versu":9196,"versuch</w>":9197,"versuche</w>":9198,"versuchen</w>":9199,"versucht</w>":9200,"versuchte</w>":9201,"versuchten</w>":9202,"versums</w>":9203,"versus</w>":9204,"vertei":9205,"verteilt</w>":9206,"verteilung</w>":9207,"verti":9208,"vertr":9209,"vertrau":9210,"vertrauen</w>":9211,"vertraut</w>":9212,"verur":9213,"verursa":9214,"verursacht</w>":9215,"verwal":9216,"verwand":9217,"verwandeln</w>":9218,"verwandelt</w>":9219,"verwen":9220,"verwenden</w>":9221,"verwendet</w>":9222,"very</w>":9223,"verzwei":9224,"verän":9225,"veränder":9226,"verändern</w>":9227,"verändert</w>":9228,"veränderte</w>":9229,"veränderung</w>":9230,"veränderungen</w>":9231,"veröffent":9232,"veröffentlicht</w>":9233,"ves":9234,"ves</w>":9235,"vey</w>":9236,"vi":9237,"via</w>":9238,"vic":9239,"vice</w>":9240,"vices</w>":9241,"vid</w>":9242,"vide":9243,"video":9244,"video</w>":9245,"videos</w>":9246,"vie":9247,"viel":9248,"viel</w>":9249,"viele</w>":9250,"vielen</w>":9251,"vielfalt</w>":9252,"viell":9253,"vielleicht</w>":9254,"vier":9255,"vier</w>":9256,"viert</w>":9257,"viertel</w>":9258,"viet":9259,"view</w>":9260,"vil":9261,"vil</w>":9262,"vili":9263,"villa":9264,"village</w>":9265,"ville</w>":9266,"vin":9267,"ving</w>":9268,"viol":9269,"violence</w>":9270,"violent</w>":9271,"vir":9272,"viren</w>":9273,"virg":9274,"viron":9275,"virtu":9276,"virtual</w>":9277,"virus</w>":9278,"viruses</w>":9279,"vis":9280,"visi":9281,"visible</w>":9282,"vision</w>":9283,"visit</w>":9284,"visu":9285,"visual</w>":9286,"vo":9287,"vo</w>":9288,"vog":9289,"voice</w>":9290,"voices</w>":9291,"vol":9292,"volk</w>":9293,"voll":9294,"voll</w>":9295,"volle</w>":9296,"vollen</w>":9297,"voller</w>":9298,"vollkommen</w>":9299,"vollständig</w>":9300,"volu":9301,"volun":9302,"volunte":9303,"vom</w>":9304,"von":9305,"von</w>":9306,"vor":9307,"vor</w>":9308,"voraus":9309,"voraus</w>":9310,"vorbei":9311,"vorbei</w>":9312,"vorberei":9313,"vorfahren</w>":9314,"vorge":9315,"vorhan":9316,"vorhanden</w>":9317,"vorher":9318,"vorher</w>":9319,"vorhersagen</w>":9320,"vorne</w>":9321,"vorstell":9322,"vorstellen</w>":9323,"vorstellung</w>":9324,"vorstellungen</w>":9325,"vorteil</w>":9326,"vortrag</w>":9327,"vorzu":9328,"vorzustellen</w>":9329,"vot":9330,"vote</w>":9331,"vul":9332,"vulner":9333,"vulnerable</w>":9334,"vy</w>":9335,"vö":9336,"vögel</w>":9337,"völ":9338,"völlig</w>":9339,"w":9340,"w-":9341,"w</w>":9342,"wa":9343,"wa</w>":9344,"wach":9345,"wachen</w>":9346,"wachsen":9347,"wachsen</w>":9348,"wachst":9349,"wachstum</w>":9350,"waff":9351,"waffen</w>":9352,"wagen</w>":9353,"wahl":9354,"wahl</w>":9355,"wahn":9356,"wahr":9357,"wahr</w>":9358,"wahre</w>":9359,"wahren</w>":9360,"wahrheit</w>":9361,"wahrneh":9362,"wahrnehmung</w>":9363,"wahrschein":9364,"wahrscheinlich</w>":9365,"wahrscheinlichkeit</w>":9366,"wait</w>":9367,"waiting</w>":9368,"wake</w>":9369,"wal":9370,"wald</w>":9371,"walk</w>":9372,"walked</w>":9373,"walking</w>":9374,"wall</w>":9375,"walls</w>":9376,"wan":9377,"wand":9378,"wand</w>":9379,"wandel</w>":9380,"wander":9381,"wann</w>":9382,"want</w>":9383,"wanted</w>":9384,"wants</w>":9385,"war":9386,"war</w>":9387,"ward</w>":9388,"wards</w>":9389,"ware</w>":9390,"waren</w>":9391,"warm</w>":9392,"warming</w>":9393,"wars</w>":9394,"wart</w>":9395,"warten</w>":9396,"warum</w>":9397,"was":9398,"was</w>":9399,"washing":9400,"washington</w>":9401,"wasn</w>":9402,"wasser":9403,"wasser</w>":9404,"waste</w>":9405,"wat":9406,"watch</w>":9407,"watched</w>":9408,"watching</w>":9409,"water":9410,"water</w>":9411,"watt</w>":9412,"wave</w>":9413,"waves</w>":9414,"way</w>":9415,"ways</w>":9416,"we":9417,"we</w>":9418,"wea":9419,"weal":9420,"wealth</w>":9421,"weapon":9422,"weapons</w>":9423,"wear</w>":9424,"wearing</w>":9425,"weather</w>":9426,"web":9427,"web</w>":9428,"webseite</w>":9429,"website</w>":9430,"wech":9431,"wechsel":9432,"wechsel</w>":9433,"wechseln</w>":9434,"wed</w>":9435,"weder</w>":9436,"wee":9437,"week</w>":9438,"weeks</w>":9439,"ween</w>":9440,"weg":9441,"weg</w>":9442,"wege</w>":9443,"wegen</w>":9444,"wegs</w>":9445,"wei":9446,"weib":9447,"weight</w>":9448,"weil</w>":9449,"weile</w>":9450,"wein":9451,"weird</w>":9452,"weis</w>":9453,"weise</w>":9454,"weisen</w>":9455,"weiss</w>":9456,"weit":9457,"weit</w>":9458,"weite</w>":9459,"weiten</w>":9460,"weiter":9461,"weiter</w>":9462,"weitere</w>":9463,"weiteren</w>":9464,"weiteres</w>":9465,"weiterhin</w>":9466,"weiß</w>":9467,"weiße</w>":9468,"weißen</w>":9469,"weißt</w>":9470,"wel":9471,"welche</w>":9472,"welchem</w>":9473,"welchen</w>":9474,"welcher</w>":9475,"welches</w>":9476,"well":9477,"well-":9478,"well</w>":9479,"welle</w>":9480,"wellen</w>":9481,"welt":9482,"welt</w>":9483,"weltweit</w>":9484,"wen":9485,"wen</w>":9486,"wenden</w>":9487,"wenig":9488,"wenig</w>":9489,"wenige</w>":9490,"wenigen</w>":9491,"weniger</w>":9492,"wenn</w>":9493,"went</w>":9494,"wer":9495,"wer</w>":9496,"werbung</w>":9497,"werde</w>":9498,"werden</w>":9499,"were</w>":9500,"weren</w>":9501,"werfen</w>":9502,"werk":9503,"werk</w>":9504,"werke</w>":9505,"werken</w>":9506,"werkzeug</w>":9507,"werkzeuge</w>":9508,"wers</w>":9509,"wert":9510,"wert</w>":9511,"werte</w>":9512,"werten</w>":9513,"wes":9514,"wesen</w>":9515,"wesent":9516,"wesentlich</w>":9517,"wesentlichen</w>":9518,"west":9519,"west</w>":9520,"westen</w>":9521,"western</w>":9522,"westlichen</w>":9523,"wett":9524,"wettbewer":9525,"wettbewerb</w>":9526,"wh":9527,"what":9528,"what</w>":9529,"whatever</w>":9530,"whe":9531,"when</w>":9532,"whenever</w>":9533,"wher":9534,"where":9535,"where</w>":9536,"whereas</w>":9537,"whether</w>":9538,"whi":9539,"which</w>":9540,"while</w>":9541,"whit":9542,"white</w>":9543,"who":9544,"who</w>":9545,"whole</w>":9546,"whom</w>":9547,"whose</w>":9548,"why</w>":9549,"wi":9550,"wichti":9551,"wichtig":9552,"wichtig</w>":9553,"wichtige</w>":9554,"wichtigen</w>":9555,"wichtiger</w>":9556,"wichtigste</w>":9557,"wichtigsten</w>":9558,"wick":9559,"wid":9560,"wide</w>":9561,"wider":9562,"wie":9563,"wie</w>":9564,"wieder":9565,"wieder</w>":9566,"wiederum</w>":9567,"wies":9568,"wiesen</w>":9569,"wieso</w>":9570,"wieviel</w>":9571,"wife</w>":9572,"wiki":9573,"wikipedia</w>":9574,"wil":9575,"wild":9576,"wild</w>":9577,"will":9578,"will</w>":9579,"willen</w>":9580,"willi":9581,"willing</w>":9582,"willst</w>":9583,"win":9584,"win</w>":9585,"wind":9586,"wind</w>":9587,"winden</w>":9588,"window</w>":9589,"windows</w>":9590,"wine</w>":9591,"wing</w>":9592,"wings</w>":9593,"winkel</w>":9594,"winter</w>":9595,"winzi":9596,"wir":9597,"wir</w>":9598,"wird</w>":9599,"wire</w>":9600,"wired</w>":9601,"wirk":9602,"wirken</w>":9603,"wirklich</w>":9604,"wirkliche</w>":9605,"wirklichen</w>":9606,"wirklichkeit</w>":9607,"wirkt</w>":9608,"wirkung</w>":9609,"wirkungen</w>":9610,"wirst</w>":9611,"wirt":9612,"wirtschaft":9613,"wirtschaft</w>":9614,"wirtschaftliche</w>":9615,"wirtschaftlichen</w>":9616,"wirtschafts":9617,"wis":9618,"wisdom</w>":9619,"wise</w>":9620,"wish</w>":9621,"wissen":9622,"wissen</w>":9623,"wissenschaft":9624,"wissenschaft</w>":9625,"wissenschaften</w>":9626,"wissenschaftler</w>":9627,"wissenschaftliche</w>":9628,"wissenschaftlichen</w>":9629,"wisst</w>":9630,"wit":9631,"with":9632,"with</w>":9633,"within</w>":9634,"without</w>":9635,"witz</w>":9636,"wn</w>":9637,"wo":9638,"wo</w>":9639,"wobei</w>":9640,"woche</w>":9641,"wochen</w>":9642,"wofür</w>":9643,"woher</w>":9644,"wohin</w>":9645,"wohl":9646,"wohl</w>":9647,"wohn":9648,"wohner</w>":9649,"wol":9650,"woll":9651,"wollen</w>":9652,"wollte</w>":9653,"wollten</w>":9654,"wom":9655,"woman</w>":9656,"women</w>":9657,"won":9658,"won</w>":9659,"wonder":9660,"wonder</w>":9661,"wonderful</w>":9662,"wondering</w>":9663,"woo":9664,"wood</w>":9665,"wor":9666,"word</w>":9667,"worden</w>":9668,"words</w>":9669,"worfen</w>":9670,"work":9671,"work</w>":9672,"worked</w>":9673,"workers</w>":9674,"working</w>":9675,"works</w>":9676,"worl":9677,"world":9678,"world</w>":9679,"worldwide</w>":9680,"worried</w>":9681,"worry</w>":9682,"worse</w>":9683,"worst</w>":9684,"wort</w>":9685,"worte</w>":9686,"worten</w>":9687,"worth</w>":9688,"worüber</w>":9689,"would</w>":9690,"wouldn</w>":9691,"wovon</w>":9692,"wow</w>":9693,"wr":9694,"wra":9695,"wri":9696,"write</w>":9697,"writer</w>":9698,"writing</w>":9699,"written</w>":9700,"wrong</w>":9701,"wrote</w>":9702,"ws</w>":9703,"wu":9704,"wuchs</w>":9705,"wunden</w>":9706,"wunder":9707,"wunder</w>":9708,"wunderbar</w>":9709,"wunderbare</w>":9710,"wuns":9711,"wunsch</w>":9712,"wur":9713,"wurde</w>":9714,"wurden</w>":9715,"wurz":9716,"wus":9717,"wusste</w>":9718,"wussten</w>":9719,"wä":9720,"wächst</w>":9721,"wählen</w>":9722,"währ":9723,"während</w>":9724,"wäl":9725,"wär":9726,"wäre</w>":9727,"wären</w>":9728,"wärmung</w>":9729,"wärts</w>":9730,"wör":9731,"wörter</w>":9732,"wü":9733,"wün":9734,"wür":9735,"würde</w>":9736,"würden</w>":9737,"wüste</w>":9738,"x":9739,"x-":9740,"x</w>":9741,"xes</w>":9742,"xi":9743,"xic":9744,"xt</w>":9745,"y":9746,"y-":9747,"y</w>":9748,"ya</w>":9749,"ye":9750,"ye</w>":9751,"yeah</w>":9752,"year-":9753,"year-old</w>":9754,"year</w>":9755,"years</w>":9756,"yed</w>":9757,"yel":9758,"yellow</w>":9759,"yer</w>":9760,"yers</w>":9761,"yes</w>":9762,"yester":9763,"yesterday</w>":9764,"yet</w>":9765,"ying</w>":9766,"yl":9767,"yle</w>":9768,"yn":9769,"yn</w>":9770,"yo":9771,"yo</w>":9772,"yor":9773,"york</w>":9774,"you":9775,"you</w>":9776,"young</w>":9777,"your":9778,"your</w>":9779,"yourself</w>":9780,"youtube</w>":9781,"yp":9782,"ys</w>":9783,"z":9784,"z.b.</w>":9785,"z</w>":9786,"za":9787,"za</w>":9788,"zahl":9789,"zahl</w>":9790,"zahlen</w>":9791,"zahn":9792,"zar":9793,"zation</w>":9794,"zations</w>":9795,"zau":9796,"zauber":9797,"ze":9798,"ze</w>":9799,"zed</w>":9800,"zehn":9801,"zehn</w>":9802,"zei":9803,"zei</w>":9804,"zeich":9805,"zeichen</w>":9806,"zeichnen</w>":9807,"zeichnet</w>":9808,"zeichnungen</w>":9809,"zeige</w>":9810,"zeigen</w>":9811,"zeigt</w>":9812,"zeigte</w>":9813,"zeigten</w>":9814,"zeit":9815,"zeit</w>":9816,"zeital":9817,"zeitalter</w>":9818,"zeiten</w>":9819,"zeitig</w>":9820,"zeitpunkt</w>":9821,"zeitung</w>":9822,"zel":9823,"zell":9824,"zelle</w>":9825,"zellen</w>":9826,"zen":9827,"zen</w>":9828,"zens</w>":9829,"zent":9830,"zentr":9831,"zentrum</w>":9832,"zep":9833,"zept</w>":9834,"zer":9835,"zer</w>":9836,"zero</w>":9837,"zerstör":9838,"zerstören</w>":9839,"zerstört</w>":9840,"zes</w>":9841,"zeu":9842,"zeug":9843,"zeug</w>":9844,"zeuge</w>":9845,"zeugen</w>":9846,"zeugt</w>":9847,"zhei":9848,"zi":9849,"zie":9850,"zieh":9851,"ziehen</w>":9852,"zieht</w>":9853,"ziel":9854,"ziel</w>":9855,"ziele</w>":9856,"zielen</w>":9857,"ziemlich</w>":9858,"zier":9859,"zieren</w>":9860,"ziert</w>":9861,"zierte</w>":9862,"zierten</w>":9863,"zig</w>":9864,"zimmer</w>":9865,"zin":9866,"zin</w>":9867,"zine</w>":9868,"zing</w>":9869,"zir":9870,"zit":9871,"zitat</w>":9872,"zität</w>":9873,"zivili":9874,"zivilisation</w>":9875,"zo":9876,"zog</w>":9877,"zogen</w>":9878,"zon":9879,"zon</w>":9880,"zone</w>":9881,"zop":9882,"zt</w>":9883,"zte</w>":9884,"zten</w>":9885,"zu":9886,"zu</w>":9887,"zubringen</w>":9888,"zuerst</w>":9889,"zufä":9890,"zufällig</w>":9891,"zug</w>":9892,"zugang</w>":9893,"zuge":9894,"zugän":9895,"zugänglich</w>":9896,"zuhause</w>":9897,"zuhören</w>":9898,"zukunft</w>":9899,"zukünf":9900,"zum</w>":9901,"zumin":9902,"zumindest</w>":9903,"zun":9904,"zune":9905,"zunehmen":9906,"zunehmen</w>":9907,"zung</w>":9908,"zunächst</w>":9909,"zur":9910,"zur</w>":9911,"zurück":9912,"zurück</w>":9913,"zurückzu":9914,"zus":9915,"zusagen</w>":9916,"zusam":9917,"zusammen":9918,"zusammen</w>":9919,"zusammenarbeit</w>":9920,"zusammenge":9921,"zusammenhang</w>":9922,"zusammenzu":9923,"zuschau":9924,"zustand</w>":9925,"zustellen</w>":9926,"zusä":9927,"zusätz":9928,"zuvor</w>":9929,"zw":9930,"zwan":9931,"zwar</w>":9932,"zwe":9933,"zweck</w>":9934,"zwei":9935,"zwei</w>":9936,"zweite</w>":9937,"zweiten</w>":9938,"zweitens</w>":9939,"zwi":9940,"zwischen":9941,"zwischen</w>":9942,"zy":9943,"zy</w>":9944,"zz":9945,"zz</w>":9946,"zä":9947,"zählen</w>":9948,"zö":9949,"zü":9950,"züge</w>":9951,"züglich</w>":9952,"":9953,"</w>":9954,"":9955,"</w>":9956,"":9957,"</w>":9958,"":9959,"</w>":9960,"":9961,"</w>":9962,"":9963,"</w>":9964,"£":9965,"£</w>":9966,"¥":9967,"¥</w>":9968,"©":9969,"©</w>":9970,"«":9971,"«</w>":9972,"­":9973,"­</w>":9974,"®":9975,"®</w>":9976,"°":9977,"°</w>":9978,"²":9979,"²</w>":9980,"³":9981,"³</w>":9982,"»":9983,"»</w>":9984,"¼":9985,"¼</w>":9986,"½":9987,"½</w>":9988,"¾":9989,"¾</w>":9990,"×":9991,"×</w>":9992,"ß":9993,"ß</w>":9994,"ße</w>":9995,"ßen</w>":9996,"ßt</w>":9997,"à":9998,"à</w>":9999,"á":10000,"á</w>":10001,"â":10002,"â</w>":10003,"ã":10004,"ä":10005,"ä</w>":10006,"äch":10007,"ächlich</w>":10008,"ächst</w>":10009,"äd":10010,"äf":10011,"ägyp":10012,"ähn":10013,"ähnlich</w>":10014,"ähnliche</w>":10015,"äl":10016,"ält</w>":10017,"älter</w>":10018,"än":10019,"ände</w>":10020,"änder":10021,"ändern</w>":10022,"ändert</w>":10023,"äne</w>":10024,"änge</w>":10025,"är":10026,"äre</w>":10027,"ären</w>":10028,"ärm":10029,"ärzte</w>":10030,"äs":10031,"ät</w>":10032,"äu":10033,"äume</w>":10034,"äumen</w>":10035,"äuß":10036,"äußerst</w>":10037,"å":10038,"ç":10039,"è":10040,"è</w>":10041,"é":10042,"é</w>":10043,"ê":10044,"ë":10045,"ë</w>":10046,"í":10047,"í</w>":10048,"î":10049,"ï":10050,"ñ":10051,"ó":10052,"ó</w>":10053,"ô":10054,"ö":10055,"ö</w>":10056,"öff":10057,"öffent":10058,"öffentliche</w>":10059,"öffentlichen</w>":10060,"öffentlichkeit</w>":10061,"öffnen</w>":10062,"öffnet</w>":10063,"öhn":10064,"ök":10065,"öko":10066,"ökon":10067,"ökonom":10068,"öl":10069,"öl</w>":10070,"ön":10071,"ör":10072,"ø":10073,"ú":10074,"ü":10075,"ü</w>":10076,"üb":10077,"üben</w>":10078,"über":10079,"über</w>":10080,"überall</w>":10081,"überhaupt</w>":10082,"überleben</w>":10083,"überlegen</w>":10084,"überprü":10085,"überqu":10086,"überra":10087,"überrasch":10088,"überrascht</w>":10089,"übertragen</w>":10090,"überzeu":10091,"überzeugen</w>":10092,"überzeugt</w>":10093,"übri":10094,"übrig</w>":10095,"übrigens</w>":10096,"ück":10097,"ück</w>":10098,"ücken</w>":10099,"ün":10100,"ür":10101,"üs":10102,"ý":10103,"ā":10104,"ă":10105,"ć":10106,"ć</w>":10107,"ē":10108,"ē</w>":10109,"ō":10110,"œ":10111,"š":10112,"ť":10113,"ť</w>":10114,"β":10115,"β</w>":10116,"к":10117,"ӓ":10118,"ย":10119,"ย</w>":10120,"ร":10121,"ร</w>":10122,"อ":10123,"่":10124,"่</w>":10125,"‒":10126,"‒</w>":10127,"–":10128,"–</w>":10129,"—":10130,"—</w>":10131,"‚":10132,"‚</w>":10133,"‟":10134,"‟</w>":10135,"…":10136,"…</w>":10137,"‹":10138,"‹</w>":10139,"›":10140,"›</w>":10141,"€":10142,"€</w>":10143,"你":10144,"葱":10145,"葱</w>":10146,"送":10147,"﻿":10148,"﻿</w>":10149,"，":10150,"，</w>":10151},"merges":[["e","n</w>"],["t","h"],["i","n"],["e","r"],["a","n"],["c","h"],["e","r</w>"],["e","n"],["u","n"],["i","e</w>"],["e","i"],["c","h</w>"],["s","t"],["a","l"],["e","s</w>"],["th","e</w>"],["a","r"],["e","s"],["l","i"],["t","i"],["a","s</w>"],["p","o"],["an","d</w>"],["i","n</w>"],["e","l"],["a","u"],["e","in"],["w","i"],["a","t</w>"],["o","r"],["o","n"],["o","n</w>"],["un","d</w>"],["in","g</w>"],["po","s"],["i","s"],["t","o</w>"],["r","e"],["i","s</w>"],["o","u"],["&","a"],["&a","pos"],["d","ie</w>"],["&apos",";"],["i","ch</w>"],["i","t</w>"],["o","f</w>"],["m","a"],["a","b"],["t","e</w>"],["d","i"],["d","er</w>"],["s","ch"],["r","o"],["g","e"],["b","e"],["a","s"],["e","d</w>"],["q","u"],["o","t"],["v","er"],["th","at</w>"],["o","m"],["a","n</w>"],["a","t"],["w","h"],["l","e"],["d","en</w>"],["s","ie</w>"],["t","en</w>"],["s","o</w>"],["d","as</w>"],["r","i"],["l","e</w>"],["qu","ot"],["d","e"],["&","quot"],["&quot",";</w>"],["r","a"],["y","o"],["o","l"],["is","t</w>"],["yo","u</w>"],["u","r"],["er","e</w>"],["s","e"],["v","e</w>"],["n","o"],["w","e</w>"],["o","r</w>"],["s","i"],["wi","r</w>"],["ch","t</w>"],["ei","n</w>"],["w","as</w>"],["g","en</w>"],["z","u</w>"],["a","m"],["l","y</w>"],["&apos;","s</w>"],["h","a"],["ein","e</w>"],["n","i"],["u","s"],["n","e"],["th","e"],["g","e</w>"],["a","c"],["th","is</w>"],["i","l"],["d","e</w>"],["t","er"],["h","r"],["a","r</w>"],["v","i"],["l","o"],["s","e</w>"],["s","a"],["s","p"],["di","es"],["i","t"],["en","t"],["d","er"],["p","ro"],["a","l</w>"],["ti","on</w>"],["v","on</w>"],["t","e"],["ch","en</w>"],["b","u"],["f","ü"],["un","g</w>"],["as","s</w>"],["k","e</w>"],["-","-</w>"],["o","p"],["u","m</w>"],["h","i"],["en","t</w>"],["n","en</w>"],["d","ass</w>"],["g","en"],["ou","t</w>"],["in","d</w>"],["t","h</w>"],["ni","cht</w>"],["s","t</w>"],["m","e"],["ar","e</w>"],["li","ch</w>"],["the","y</w>"],["al","l</w>"],["h","ab"],["g","i"],["t","er</w>"],["w","or"],["f","f"],["h","t</w>"],["m","it</w>"],["h","r</w>"],["b","e</w>"],["e","m</w>"],["m","o"],["t","z"],["m","e</w>"],["w","en"],["c","om"],["f","or</w>"],["w","ei"],["ma","n</w>"],["g","o"],["au","f</w>"],["w","ie</w>"],["h","o"],["c","k"],["l","d</w>"],["al","ly</w>"],["el","l"],["d","a"],["c","e</w>"],["f","or"],["ü","b"],["s","en</w>"],["w","a"],["w","e"],["g","es"],["al","s</w>"],["ha","ve</w>"],["ch","e</w>"],["on","e</w>"],["wh","at</w>"],["p","e"],["j","e"],["an","n</w>"],["l","a"],["h","en</w>"],["w","er"],["n","a"],["bu","t</w>"],["ou","r</w>"],["no","w</w>"],["d","en"],["t","a"],["t","u"],["s","u"],["p","er"],["h","e</w>"],["c","an</w>"],["b","en</w>"],["fü","r</w>"],["t","r"],["ti","on"],["wi","th</w>"],["ei","t</w>"],["m","i"],["e","x"],["c","on"],["n","u"],["i","m"],["z","u"],["r","e</w>"],["s","ich</w>"],["d","o"],["m","en</w>"],["s","ind</w>"],["i","e"],["ab","er</w>"],["m","en"],["wi","r"],["t","s</w>"],["hab","en</w>"],["wen","n</w>"],["k","ö"],["an","d"],["ein","en</w>"],["g","r"],["t","o"],["&apos;","t</w>"],["w","el"],["f","i"],["u","l"],["ab","out</w>"],["th","ere</w>"],["c","i"],["al","l"],["al","so</w>"],["in","g"],["de","m</w>"],["w","ar</w>"],["s","om"],["g","ht</w>"],["a","f"],["ou","ld</w>"],["au","s"],["th","er</w>"],["kö","n"],["h","e"],["dies","e</w>"],["no","t</w>"],["ä","n"],["d","o</w>"],["b","r"],["p","l"],["c","o"],["b","o"],["d","es</w>"],["m","u"],["ol","l"],["i","m</w>"],["au","s</w>"],["m","y</w>"],["sch","en</w>"],["g","l"],["ver","y</w>"],["f","a"],["f","e"],["&apos;","re</w>"],["s","o"],["s","el"],["ein","er</w>"],["st","e"],["r","es"],["er","en</w>"],["pe","op"],["th","ing</w>"],["d","s</w>"],["peop","le</w>"],["w","ar"],["f","ro"],["g","u"],["us","t</w>"],["er","t</w>"],["b","i"],["e","t"],["üb","er</w>"],["li","ke</w>"],["i","f</w>"],["k","om"],["r","u"],["i","h"],["fro","m</w>"],["j","a"],["m","or"],["es","e</w>"],["d","u"],["p","p"],["g","t</w>"],["au","f"],["p","u"],["st","en</w>"],["ho","w</w>"],["g","an"],["h","er"],["l","l</w>"],["p","a"],["an","t</w>"],["un","s</w>"],["v","er</w>"],["m","an"],["in","ter"],["y","e"],["un","s"],["z","i"],["au","se</w>"],["p","ar"],["ein","em</w>"],["t","t"],["th","ese</w>"],["e","l</w>"],["a","tion</w>"],["r","ei"],["li","e"],["j","ust</w>"],["kön","nen</w>"],["be","c"],["k","ing</w>"],["ch","te</w>"],["t","ra"],["ü","r"],["b","ei"],["b","t</w>"],["ur","e</w>"],["st","i"],["g","er"],["o","der</w>"],["wer","den</w>"],["hi","er</w>"],["h","al"],["b","er"],["b","es"],["f","in"],["d","ar"],["c","k</w>"],["v","or"],["bec","ause</w>"],["wh","en</w>"],["k","l"],["h","at</w>"],["th","in"],["g","ro"],["s","en"],["t","ed</w>"],["i","hr"],["a","m</w>"],["s","y"],["un","gen</w>"],["b","y</w>"],["i","g"],["a","d"],["u","s</w>"],["au","ch</w>"],["h","l"],["es","s</w>"],["p","h"],["ges","ch"],["st","ell"],["ar","s</w>"],["d","es"],["o","g"],["o","k</w>"],["s","sen</w>"],["u","p</w>"],["a","g"],["k","on"],["k","now</w>"],["the","m</w>"],["k","ann</w>"],["en","d</w>"],["s","h"],["h","ere</w>"],["i","c"],["go","ing</w>"],["0","0</w>"],["z","ei"],["u","m"],["e","m"],["d","ann</w>"],["b","en"],["f","t</w>"],["t","y</w>"],["mor","e</w>"],["w","o</w>"],["se","hr</w>"],["se","hen</w>"],["ar","t</w>"],["wa","y</w>"],["wh","ich</w>"],["k","en</w>"],["ing","s</w>"],["d","ur"],["st","e</w>"],["u","te</w>"],["se","e</w>"],["wir","d</w>"],["som","e"],["ja","hr"],["ha","d</w>"],["nu","r</w>"],["thin","k</w>"],["ge","t</w>"],["am","e</w>"],["in","e</w>"],["t","el"],["m","ö"],["i","r"],["sch","af"],["o","ther</w>"],["ou","r"],["pro","b"],["l","u"],["w","n</w>"],["gi","bt</w>"],["th","ei"],["w","ä"],["wh","o</w>"],["ma","l</w>"],["w","o"],["g","el"],["y","our</w>"],["f","u"],["men","schen</w>"],["li","ch"],["v","or</w>"],["re","ally</w>"],["üb","er"],["s","ein</w>"],["h","n"],["e","v"],["f","ra"],["ih","nen</w>"],["w","ur"],["wi","ll</w>"],["thei","r</w>"],["b","il"],["i","d</w>"],["k","t</w>"],["c","re"],["th","en</w>"],["er","n</w>"],["w","ere</w>"],["un","ter"],["m","ich</w>"],["m","er</w>"],["g","h</w>"],["w","ould</w>"],["t","ri"],["er","s</w>"],["l","an"],["m","il"],["o","d</w>"],["y","s</w>"],["h","er</w>"],["st","a"],["&apos;","ve</w>"],["as","t</w>"],["t","ei"],["tz","t</w>"],["f","o"],["wor","ld</w>"],["wh","ere</w>"],["ti","me</w>"],["st","u"],["h","at"],["po","r"],["f","e</w>"],["it","y</w>"],["d","on</w>"],["m","it"],["dies","er</w>"],["som","e</w>"],["m","on"],["an","der"],["et","was</w>"],["no","ch</w>"],["&apos;","m</w>"],["ac","tu"],["p","r"],["c","t</w>"],["i","de"],["vi","el"],["d","is"],["k","s</w>"],["na","ch</w>"],["h","as</w>"],["hab","e</w>"],["ch","ten</w>"],["wir","k"],["prob","le"],["actu","ally</w>"],["m","in"],["m","ar"],["z","e"],["der","n</w>"],["be","i</w>"],["ge","b"],["ab","le</w>"],["g","ra"],["in","to</w>"],["te","ch"],["a","p"],["un","der"],["te","t</w>"],["tion","s</w>"],["ä","ch"],["g","o</w>"],["t","en"],["mi","r</w>"],["wel","t</w>"],["un","g"],["t","al"],["da","y</w>"],["f","ac"],["a","te</w>"],["a","d</w>"],["ol","og"],["f","r"],["g","h"],["s","ol"],["d","in"],["th","ings</w>"],["d","r"],["st","or"],["sp","e"],["or","t</w>"],["s","on"],["le","ben</w>"],["ye","ars</w>"],["ti","ve</w>"],["ou","gh</w>"],["fi","r"],["ac","k</w>"],["li","chen</w>"],["al","le</w>"],["ne","u"],["me","hr</w>"],["en","ce</w>"],["ne","w</w>"],["di","es</w>"],["ö","r"],["z","e</w>"],["w","ür"],["ch","an"],["h","ei"],["th","o"],["un","d"],["g","er</w>"],["v","es</w>"],["m","p"],["al","i"],["l","ei"],["o","b"],["li","che</w>"],["ent","s</w>"],["st","r"],["n","o</w>"],["k","e"],["g","te</w>"],["k","eit</w>"],["wel","l</w>"],["m","s</w>"],["ch","ti"],["n","at"],["d","a</w>"],["g","a"],["d","y</w>"],["es","t</w>"],["ha","pp"],["c","ould</w>"],["t","ro"],["t","ur"],["ti","c"],["gro","ß"],["w","ant</w>"],["g","re"],["ihr","e</w>"],["in","n"],["ma","chen</w>"],["h","u"],["ri","ght</w>"],["m","eine</w>"],["k","in"],["sp","i"],["m","us"],["mil","li"],["un","i"],["f","ä"],["z","um</w>"],["ma","ke</w>"],["kom","men</w>"],["p","as"],["t","re"],["wei","l</w>"],["m","ü"],["t","ter</w>"],["be","g"],["ch","t"],["f","en</w>"],["di","ff"],["be","en</w>"],["m","ent</w>"],["sa","id</w>"],["s","er"],["d","an"],["f","f</w>"],["ein","es</w>"],["y","ing</w>"],["au","en</w>"],["st","ar"],["nu","n</w>"],["n","te</w>"],["wur","de</w>"],["mo","st</w>"],["dur","ch</w>"],["wirk","lich</w>"],["t","ure</w>"],["tech","n"],["com","e</w>"],["ein","fa"],["im","mer</w>"],["s","he</w>"],["p","re"],["w","er</w>"],["dies","es</w>"],["some","thing</w>"],["tz","en</w>"],["v","ing</w>"],["k","ind</w>"],["es","s"],["d","ing</w>"],["h","ä"],["gl","au"],["f","ol"],["m","t</w>"],["th","an</w>"],["f","re"],["h","l</w>"],["l","as"],["a","k"],["ü","ck"],["k","en"],["h","in"],["h","men</w>"],["ch","er</w>"],["fir","st</w>"],["ü","n"],["h","eit</w>"],["z","eit</w>"],["t","wo</w>"],["ou","s</w>"],["ar","bei"],["d","am"],["ma","cht</w>"],["tho","se</w>"],["wor","k</w>"],["f","l"],["p","la"],["h","is</w>"],["lo","ok</w>"],["tu","n</w>"],["at","er</w>"],["on","s</w>"],["wi","ssen</w>"],["b","ra"],["tt","le</w>"],["l","in"],["k","an"],["at","ed</w>"],["uns","ere</w>"],["er","n"],["el","e"],["li","ttle</w>"],["diff","er"],["on","g</w>"],["z","en</w>"],["en","s</w>"],["is","che</w>"],["b","ack</w>"],["ri","e"],["0","00</w>"],["b","er</w>"],["w","oll"],["je","tzt</w>"],["is","chen</w>"],["i","hr</w>"],["na","ch"],["go","t</w>"],["si","on</w>"],["&apos",";</w>"],["am","er"],["vi","el</w>"],["l","l"],["z","ie"],["pro","du"],["al","e</w>"],["t","ing</w>"],["is","i"],["f","un"],["pl","an"],["mu","ch</w>"],["s","k"],["ff","en</w>"],["d","at"],["me","di"],["li","fe</w>"],["p","res"],["schaf","t</w>"],["hat","te</w>"],["e","t</w>"],["st","o"],["sa","y</w>"],["s","c"],["st","em</w>"],["sa","gen</w>"],["b","le</w>"],["com","p"],["ä","u"],["s","on</w>"],["o","m</w>"],["sel","b"],["t","at"],["le","ute</w>"],["ol","d</w>"],["stell","en</w>"],["ar","d</w>"],["f","an"],["el","t</w>"],["wi","e"],["mö","g"],["o","ver</w>"],["k","ed</w>"],["k","eine</w>"],["gl","ei"],["ac","e</w>"],["viel","e</w>"],["z","us"],["a","ch</w>"],["n","e</w>"],["h","el"],["p","i"],["des","ig"],["in","di"],["e","ver"],["st","ru"],["fü","hr"],["d","re"],["st","er</w>"],["dies","em</w>"],["lo","o"],["z","we"],["c","e"],["proble","m</w>"],["t","es</w>"],["on","ly</w>"],["b","as"],["wi","s"],["ä","r"],["d","u</w>"],["ev","en</w>"],["den","n</w>"],["bo","dy</w>"],["sy","stem</w>"],["an","s"],["man","y</w>"],["k","r"],["gesch","i"],["ta","ke</w>"],["e","ar"],["sa","gte</w>"],["st","and</w>"],["g","es</w>"],["k","o"],["fu","l</w>"],["din","ge</w>"],["n","or"],["ä","t</w>"],["el","y</w>"],["c","ol"],["h","and"],["bu","il"],["ever","y"],["tion","en</w>"],["s","er</w>"],["t","s"],["ung","s"],["d","n</w>"],["b","ein"],["el","l</w>"],["dies","en</w>"],["1","9"],["zwe","i</w>"],["an","s</w>"],["ar","o"],["einfa","ch</w>"],["war","en</w>"],["th","r"],["b","li"],["j","o"],["m","er"],["di","d</w>"],["w","s</w>"],["c","u"],["po","li"],["c","al</w>"],["s","ei"],["ne","ed</w>"],["i","ge</w>"],["i","es</w>"],["b","in</w>"],["w","as"],["all","es</w>"],["jahr","en</w>"],["co","un"],["v","ol"],["it","s</w>"],["k","a"],["en","ti"],["ge","hen</w>"],["b","l"],["ex","per"],["go","od</w>"],["mü","ssen</w>"],["ver","su"],["lo","t</w>"],["as","e</w>"],["s","oll"],["and","ere</w>"],["th","re"],["h","ör"],["el","n</w>"],["v","en</w>"],["ge","w"],["aro","und</w>"],["wei","se</w>"],["2","0"],["techn","olog"],["c","es</w>"],["s","ur"],["le","t</w>"],["e","sti"],["wh","y</w>"],["an","y</w>"],["c","ar"],["do","wn</w>"],["hl","en</w>"],["en","de</w>"],["por","t"],["ge","ben</w>"],["a","ge</w>"],["i","c</w>"],["us","e</w>"],["p","s</w>"],["ander","en</w>"],["m","ein</w>"],["ge","ht</w>"],["in","gen</w>"],["zus","am"],["den","ken</w>"],["i","li"],["&apos;","ll</w>"],["wür","de</w>"],["d","ed</w>"],["wi","ck"],["sch","ie"],["f","am"],["de","t</w>"],["th","ou"],["l","and</w>"],["dam","it</w>"],["re","c"],["st","s</w>"],["k","un"],["p","ri"],["uns","er"],["ne","hmen</w>"],["in","s</w>"],["fa","hr"],["spi","el"],["b","is</w>"],["differ","ent</w>"],["e","very</w>"],["tr","y</w>"],["k","i"],["ei","cht</w>"],["for","ma"],["st","at"],["zu","r</w>"],["thr","ough</w>"],["vi","ell"],["viell","eicht</w>"],["fin","den</w>"],["an","t"],["ent","wick"],["s","ho"],["de","u"],["s","ame</w>"],["v","ed</w>"],["ter","i"],["b","ar"],["on","en</w>"],["com","pu"],["selb","st</w>"],["b","ot"],["s","ci"],["z","ur"],["a","u</w>"],["m","is"],["w","an"],["pu","t</w>"],["ste","hen</w>"],["le","tz"],["st","im"],["st","ra"],["en","er"],["pro","je"],["n","ten</w>"],["gu","t</w>"],["ie","l</w>"],["tei","l"],["br","au"],["ze","u"],["hal","ten</w>"],["el","le</w>"],["c","all"],["i","ma"],["si","e"],["stor","y</w>"],["ü","ck</w>"],["an","y"],["ch","il"],["ß","en</w>"],["an","k</w>"],["z","a"],["af","ri"],["c","ent</w>"],["o","l</w>"],["bein","g</w>"],["or","gan"],["s","ch</w>"],["qu","i"],["j","a</w>"],["jahr","e</w>"],["st","er"],["il","l</w>"],["g","ing</w>"],["wa","hr"],["p","le</w>"],["si","de</w>"],["n","er</w>"],["las","sen</w>"],["ti","es</w>"],["do","ing</w>"],["wi","chti"],["gr","ö"],["d","oll"],["m","es</w>"],["uni","ver"],["pas","si"],["le","ar"],["e","st"],["p","er</w>"],["1","0</w>"],["f","er"],["c","tion</w>"],["m","ei"],["v","el"],["ell","en</w>"],["m","ein"],["sel","f</w>"],["g","ar</w>"],["ne","t</w>"],["z","ä"],["ar","y</w>"],["tion","al</w>"],["in","forma"],["he","ute</w>"],["sch","i"],["s","s</w>"],["t","or"],["at","ing</w>"],["äch","lich</w>"],["thre","e</w>"],["f","il"],["ar","i"],["sp","re"],["ar","ti"],["re","d</w>"],["mus","s</w>"],["m","om"],["x","t</w>"],["n","ing</w>"],["sp","iel</w>"],["b","re"],["m","ber</w>"],["war","um</w>"],["ag","a"],["geschi","chte</w>"],["e","ff"],["e","u"],["com","m"],["call","ed</w>"],["sch","on</w>"],["le","ben"],["ol","o"],["sch","o"],["den","en</w>"],["er","te</w>"],["wa","ys</w>"],["d","ung</w>"],["gen","er"],["d","ri"],["b","ri"],["tal","k</w>"],["tat","s"],["ch","e"],["ein","ige</w>"],["tt","ing</w>"],["n","am"],["tei","l</w>"],["e","ver</w>"],["p","t</w>"],["s","or"],["pro","z"],["ma","de</w>"],["grö","ß"],["s","m"],["per","cent</w>"],["ch","in"],["hi","r"],["a","ch"],["&apos;","d</w>"],["per","son</w>"],["mö","chte</w>"],["ges","e"],["wie","der</w>"],["t","t</w>"],["for","m</w>"],["tats","ächlich</w>"],["en","g"],["al","en</w>"],["ei","gen"],["c","or"],["to","day</w>"],["for","e</w>"],["gre","at</w>"],["#","9"],["&","#9"],["g","lo"],["af","ter</w>"],["g","keit</w>"],["c","an"],["wis","sen"],["n","t</w>"],["o","ff"],["ck","en</w>"],["c","ul"],["sch","e</w>"],["sch","a"],["bes","ch"],["bi","g</w>"],["er","ung</w>"],["g","s</w>"],["k","es</w>"],["t","ung</w>"],["kom","mt</w>"],["kin","der</w>"],["da","von</w>"],["le","a"],["in","v"],["po","in"],["b","in"],["tel","l</w>"],["ter","n</w>"],["tr","u"],["d","ort</w>"],["ci","al</w>"],["y","p"],["do","ch</w>"],["qu","esti"],["ei","g"],["men","sch"],["po","n"],["vi","r"],["w","al"],["p","f"],["mu","si"],["es","en</w>"],["k","no"],["ener","g"],["r","el"],["hu","man</w>"],["ye","ar</w>"],["t","in"],["n","ed</w>"],["hn","e</w>"],["gan","z</w>"],["sch","ein"],["is","ch</w>"],["be","lie"],["ar","b"],["gen","au</w>"],["im","port"],["hat","ten</w>"],["chan","ge</w>"],["c","a"],["u","tion</w>"],["ti","c</w>"],["h","au"],["l","ast</w>"],["ti","mes</w>"],["s","eine</w>"],["dre","i</w>"],["re","gi"],["fac","t</w>"],["an","other</w>"],["ver","än"],["f","ind</w>"],["lo","w</w>"],["be","deu"],["st","an"],["hal","b</w>"],["2","0</w>"],["c","our"],["i","l</w>"],["l","li"],["nat","ür"],["gen","d"],["c","ent"],["l","es</w>"],["5","0</w>"],["wä","hr"],["e","c"],["o","wn</w>"],["ber","ei"],["ter","s</w>"],["p","un"],["l","än"],["br","ingen</w>"],["c","ou"],["wi","th"],["o","b</w>"],["au","m</w>"],["h","ar"],["dar","über</w>"],["her","aus"],["w","in"],["ch","es</w>"],["ide","a</w>"],["p","le"],["kön","nte</w>"],["be","we"],["l","ö"],["dur","ch"],["ih","n</w>"],["n","en"],["ti","vi"],["amer","i"],["s","am"],["f","ri"],["f","all"],["we","g</w>"],["pa","ar</w>"],["k","te</w>"],["i","ert</w>"],["fun","k"],["di","dn</w>"],["gi","ve</w>"],["be","fore</w>"],["m","lich</w>"],["p","en"],["f","as"],["ja","hr</w>"],["t","ten</w>"],["l","er</w>"],["lich","keit</w>"],["un","ter</w>"],["ch","ts</w>"],["z","wei"],["tr","ans"],["woll","en</w>"],["k","ei"],["w","ent</w>"],["b","lo"],["sh","ould</w>"],["st","and"],["par","t</w>"],["d","n"],["k","re"],["e","-"],["er","zä"],[",","000</w>"],["z","wi"],["star","ted</w>"],["d","ru"],["be","t"],["e","y</w>"],["wer","de</w>"],["st","ri"],["us","ed</w>"],["t","te</w>"],["thou","ght</w>"],["sch","u"],["stell","t</w>"],["desig","n</w>"],["h","om"],["ag","o</w>"],["ta","g</w>"],["m","a</w>"],["b","ro"],["s","in"],["glo","b"],["s","hi"],["w","ing</w>"],["l","ar"],["s","how</w>"],["l","er"],["pu","bli"],["o","ff</w>"],["schaf","t"],["n","s</w>"],["t","or</w>"],["k","ur"],["m","einer</w>"],["ex","am"],["ihr","en</w>"],["ch","ar"],["k","er</w>"],["sie","ht</w>"],["olo","gi"],["a","de</w>"],["pl","ace</w>"],["k","a</w>"],["wur","den</w>"],["h","ö"],["ph","y"],["ne","ver</w>"],["om","en</w>"],["wh","o"],["st","art</w>"],["be","tter</w>"],["ge","mein"],["cour","se</w>"],["h","ol"],["aga","in</w>"],["währ","end</w>"],["import","ant</w>"],["sch","n"],["i","g</w>"],["st","ill</w>"],["b","it</w>"],["k","am"],["c","y</w>"],["g","ung</w>"],["fra","ge</w>"],["ra","l</w>"],["vi","de"],["mom","ent</w>"],["arb","eit</w>"],["je","der</w>"],["ga","b</w>"],["pa","ti"],["l","and"],["zwi","schen</w>"],["hi","m</w>"],["ge","hir"],["do","es</w>"],["st","än"],["den","ke</w>"],["w","ater</w>"],["ge","macht</w>"],["ant","wor"],["zusam","men"],["f","lu"],["l","au"],["ne","xt</w>"],["mi","ght</w>"],["da","zu</w>"],["or","i"],["on","der"],[".",".</w>"],["bei","spiel</w>"],["ir","gend"],["e","ach</w>"],["st","re"],["to","ge"],["j","u"],["e","i</w>"],["sch","ö"],["toge","ther</w>"],["ka","y</w>"],["ar","ch"],["b","ar</w>"],["technolog","y</w>"],["wä","re</w>"],["bra","in</w>"],["ch","er"],["v","om</w>"],["happ","en"],["h","and</w>"],["son","dern</w>"],["f","all</w>"],["z","ed</w>"],["unser","er</w>"],["an","k"],["si","mp"],["so","gar</w>"],["c","ame</w>"],["wa","ch"],["neu","e</w>"],["o","kay</w>"],["ö","ff"],["ent","lich</w>"],["u","r</w>"],["inter","est"],["th","ank</w>"],["ma","teri"],["e","f"],["w","us"],[".","..</w>"],["sa","che</w>"],["pos","i"],["c","ro"],["sch","ei"],["i","r</w>"],["glau","be</w>"],["s","es</w>"],["compu","ter</w>"],["z","er"],["at","en</w>"],["k","ein</w>"],["k","am</w>"],["je","m"],["comp","le"],["m","al"],["de","vel"],["uns","er</w>"],["f","t"],["c","ity</w>"],["c","ts</w>"],["wh","i"],["fo","und</w>"],["e","p</w>"],["l","ong</w>"],["ti","g</w>"],["h","än"],["pro","gra"],["si","g"],["su","b"],["c","ri"],["th","er"],["og","ra"],["es","sen</w>"],["natür","lich</w>"],["sy","ste"],["n","äch"],["il","l"],["l","ine</w>"],["ge","fä"],["li","ght</w>"],["ma","y"],["20","0"],["ä","d"],["zei","gen</w>"],["l","ess</w>"],["se","con"],["t","ly</w>"],["d","ro"],["ri","chti"],["funk","tion"],["is","e</w>"],["ge","gen"],["we","en</w>"],["c","lo"],["c","ess</w>"],["i","gen</w>"],["to","o</w>"],["ihr","er</w>"],["arbei","ten</w>"],["v","al"],["o","hne</w>"],["wei","ter</w>"],["ein","mal</w>"],["pos","si"],["milli","on</w>"],["bet","ween</w>"],["u","ten</w>"],["t","an"],["in","st"],["an","ge"],["poin","t</w>"],["g","ten</w>"],["com","es</w>"],["c","ted</w>"],["b","a"],["scho","ol</w>"],["fe","w</w>"],["wei","ß</w>"],["ger","ade</w>"],["ig","er</w>"],["loo","king</w>"],["m","y"],["o","h</w>"],["ge","fü"],["n","ie</w>"],["v","a"],["ver","schie"],["auf","en</w>"],["b","us"],["sp","ra"],["or","s</w>"],["in","cre"],["en","den</w>"],["ge","d</w>"],["ni","chts</w>"],["c","ra"],["c","ap"],["chil","dr"],["da","für</w>"],["childr","en</w>"],["e","g"],["me","an</w>"],["r","y</w>"],["n","is</w>"],["phy","si"],["h","n</w>"],["tu","r</w>"],["un","den</w>"],["an","i"],["wür","den</w>"],["kei","ten</w>"],["3","0</w>"],["v","en"],["p","at"],["b","al"],["d","ra"],["informa","tion</w>"],["kö","r"],["s","ort</w>"],["o","s</w>"],["may","be</w>"],["d","one</w>"],["h","in</w>"],["pr","ä"],["proz","ent</w>"],["f","ar"],["w","a</w>"],["he","al"],["wel","t"],["ro","p"],["passi","ert</w>"],["at","z</w>"],["zur","ück</w>"],["v","is"],["n","ä"],["er","ste</w>"],["ver","stehen</w>"],["i","ce</w>"],["p","ic"],["c","a</w>"],["wir","t"],["zei","gt</w>"],["dat","a</w>"],["pr","in"],["in","i"],["who","le</w>"],["lo","ve</w>"],["questi","on</w>"],["ou","s"],["viel","en</w>"],["sch","ri"],["b","au"],["un","de</w>"],["m","ent"],["es","n</w>"],["do","esn</w>"],["li","ve</w>"],["b","or"],["es","si"],["re","ad"],["dat","en</w>"],["gr","und</w>"],["ken","nen</w>"],["v","o"],["e","con"],["c","le"],["n","er"],["dar","an</w>"],["sei","te</w>"],["f","al"],["sel","ves</w>"],["fra","gen</w>"],["econ","om"],["spre","chen</w>"],["h","y"],["w","at"],["ab","ly</w>"],["sch","l"],["sa","gt</w>"],["er","sten</w>"],["d","-"],["ch","o"],["re","al</w>"],["milli","onen</w>"],["exam","ple</w>"],["an","g"],["ma","y</w>"],["ab","ili"],["te","l</w>"],["v","oll"],["under","stand</w>"],["comm","un"],["wo","hl</w>"],["k","ü"],["k","ti"],["m","m"],["li","cht</w>"],["wan","ted</w>"],["it","ät</w>"],["p","an"],["c","er"],["di","g"],["vi","e"],["bil","d</w>"],["scha","ffen</w>"],["f","our</w>"],["as","i"],["fac","e</w>"],["u","pp"],["de","l</w>"],["ste","ht</w>"],["d","ab"],["ide","e</w>"],["kon","nte</w>"],["du","c"],["ti","gen</w>"],["ell","s</w>"],["au","ß"],["bil","li"],["l","on"],["doll","ar</w>"],["hl","t</w>"],["an","ce</w>"],["gan","ze</w>"],["h","under"],["wor","king</w>"],["groß","e</w>"],["us","ing</w>"],["for","t"],["w","omen</w>"],["exper","im"],["letz","ten</w>"],["b","el"],["ma","ti"],["ck","t</w>"],["v","ö"],["con","ne"],["m","einen</w>"],["sch","auen</w>"],["dab","ei</w>"],["in","du"],["er","st</w>"],["re","as"],["ß","t</w>"],["ben","u"],["a","h</w>"],["tr","ying</w>"],["f","ast</w>"],["sch","la"],["f","is"],["et","wa</w>"],["la","tion</w>"],["c","all</w>"],["k","ar"],["z","ing</w>"],["be","kommen</w>"],["ou","t"],["wel","che</w>"],["kön","nten</w>"],["k","ul"],["tic","al</w>"],[".","000</w>"],["devel","op"],["k","or"],["a","way</w>"],["po","wer</w>"],["a","pp"],["n","is"],["in","ess</w>"],["gen","om"],["ic","ally</w>"],["gese","hen</w>"],["d","ent</w>"],["inter","net</w>"],["l","le</w>"],["was","ser</w>"],["verän","der"],["ki","ds</w>"],["i","eren</w>"],["ac","t</w>"],["mon","ey</w>"],["p","ra"],["t","yp"],["f","ten</w>"],["an","der</w>"],["soll","te</w>"],["b","lu"],["ima","g"],["de","mo"],["k","op"],["ev","ol"],["every","thing</w>"],["1","00</w>"],["al","ways</w>"],["y","es</w>"],["t","ät</w>"],["tel","y</w>"],["w","ri"],["pun","kt</w>"],["c","li"],["mo","d"],["l","ung</w>"],["al","ity</w>"],["sp","ace</w>"],["belie","ve</w>"],["ma","s"],["wei","ter"],["fr","auen</w>"],["fä","hi"],["fe","el</w>"],["gel","d</w>"],["h","op"],["fi","ve</w>"],["s","au"],["com","ing</w>"],["ob","je"],["soll","ten</w>"],["zie","mlich</w>"],["b","is"],["el","s</w>"],["gr","upp"],["b","ab"],["mei","sten</w>"],["woll","te</w>"],["k","ra"],["sch","ul"],["coun","try</w>"],["in","nen</w>"],["h","il"],["gr","ün"],["s","ha"],["hör","en</w>"],["it","ed</w>"],["z","ent"],["er","ten</w>"],["sp","r"],["la","ge</w>"],["hel","p</w>"],["spe","ci"],["g","ab"],["wahr","schein"],["ck","s</w>"],["b","auen</w>"],["d","d"],["s","ing"],["au","t</w>"],["in","no"],["m","einem</w>"],["op","er"],["bo","ok</w>"],["ein","zi"],["poli","ti"],["thin","king</w>"],["c","ur"],["exper","i"],["c","lu"],["r","is"],["rel","a"],["ver","wen"],["per","son"],["glau","b"],["jem","and</w>"],["at","es</w>"],["ge","l</w>"],["pla","y</w>"],["nu","mber</w>"],["sch","lie"],["ge","gen</w>"],["f","lo"],["ne","e"],["cre","ate</w>"],["dan","ke</w>"],["wichti","g</w>"],["lich","er</w>"],["fo","od</w>"],["te","te</w>"],["as","k</w>"],["stu","di"],["kl","einen</w>"],["v","el</w>"],["i","ly</w>"],["to","ok</w>"],["technolog","ie</w>"],["secon","d</w>"],["ein","ander</w>"],["ro","om</w>"],["l","dn</w>"],["fü","n"],["d","ge</w>"],["hä","l"],["m","ann</w>"],["so","zi"],["f","rei"],["k","rie"],["dar","auf</w>"],["wä","r"],["k","u"],["energ","y</w>"],["on","es</w>"],["sch","wi"],["par","tic"],["f","li"],["vi","er</w>"],["vide","o</w>"],["f","ul"],["sci","ence</w>"],["ver","n"],["brau","chen</w>"],["a","k</w>"],["se","tzen</w>"],["sen","se</w>"],["ler","nen</w>"],["ar","e"],["me","ans</w>"],["er","rei"],["pro","f"],["eig","entlich</w>"],["a","ff"],["wen","iger</w>"],["ele","c"],["zusam","men</w>"],["ma","king</w>"],["ä","f"],["war","d</w>"],["p","ul"],["inter","ess"],["a","ma"],["re","li"],["ot","s</w>"],["for","sch"],["wh","e"],["fahr","en</w>"],["th","s</w>"],["f","el"],["y","or"],["chin","a</w>"],["t","on</w>"],["v","e"],["re","m</w>"],["fu","ture</w>"],["ti","v"],["ge","st"],["bes","ser</w>"],["sch","le"],["ge","tting</w>"],["sa","ge</w>"],["r","aum</w>"],["in","tel"],["fan","gen</w>"],["er","inn"],["re","ali"],["di","g</w>"],["be","come</w>"],["sch","rei"],["gr","ou"],["em","ent</w>"],["qui","te</w>"],["1","5</w>"],["t","ot"],["con","tro"],["a","b</w>"],["en","ough</w>"],["we","e"],["ing","t</w>"],["bes","t</w>"],["b","s</w>"],["s","ing</w>"],["groß","en</w>"],["buil","ding</w>"],["sm","all</w>"],["ne","t"],["gan","zen</w>"],["sa","ys</w>"],["gen","u"],["p","sy"],["fr","on"],["de","fin"],["kom","ple"],["prob","ably</w>"],["f","ern"],["p","li"],["ver","bin"],["wei","t</w>"],["read","y</w>"],["le","hr"],["na","h"],["men","ge</w>"],["w","under"],["be","stim"],["us","s</w>"],["sti","c</w>"],["k","ten</w>"],["lo","s</w>"],["col","le"],["bedeu","tet</w>"],["n","ess</w>"],["k","ün"],["gr","und"],["da","chte</w>"],["1",";</w>"],["g","ot"],["the","or"],["&#9","1;</w>"],["3",";</w>"],["kun","ft</w>"],["&#9","3;</w>"],["abili","ty</w>"],["p","ie"],["hom","e</w>"],["mu","s</w>"],["fr","ü"],["u","e</w>"],["en","en</w>"],["so","cial</w>"],["be","au"],["si","cher"],["hal","f</w>"],["r","an"],["ar","ten</w>"],["zur","ück"],["c","l"],["c","ed</w>"],["sp","ä"],["ta","in</w>"],["with","out</w>"],["m","ents</w>"],["wissen","schaft"],["hu","man"],["t","ä"],["s","ure</w>"],["be","tra"],["ih","m</w>"],["au","to"],["glau","ben</w>"],["stru","c"],["ear","th</w>"],["al","t</w>"],["r","ück"],["gr","ei"],["h","ou"],["uns","eren</w>"],["kl","eine</w>"],["st","ad"],["le","ft</w>"],["ent","ly</w>"],["zi","eren</w>"],["arch","it"],["a","gt</w>"],["si","cht"],["it","al</w>"],["stu","ff</w>"],["ent","schei"],["interest","ing</w>"],["b","ü"],["pl","ac"],["ih","rem</w>"],["tal","king</w>"],["mög","lich</w>"],["or","en</w>"],["h","an"],["ch","a"],["zei","ch"],["possi","ble</w>"],["b","ur"],["l","ab"],["en","ten</w>"],["ex","i"],["si","ve</w>"],["beg","inn"],["indi","vi"],["w","ed</w>"],["ho","ff"],["indivi","du"],["hör","t</w>"],["doll","ars</w>"],["gehir","n</w>"],["p","lo"],["leben","s"],["m","ul"],["ti","eren</w>"],["führ","t</w>"],["to","p</w>"],["isi","on</w>"],["se","t</w>"],["organ","is"],["kl","är"],["en","d"],["l","ä"],["techn","ologi"],["versu","chen</w>"],["afri","ca</w>"],["ch","s</w>"],["lan","g</w>"],["happen","ed</w>"],["je","des</w>"],["b","ac"],["s","ed</w>"],["spiel","en</w>"],["se","en</w>"],["ta","ge</w>"],["sci","enti"],["tri","es</w>"],["ges","ell"],["tt","y</w>"],["c","are</w>"],["f","le"],["fra","u</w>"],["all","en</w>"],["mit","tel"],["ro","ss</w>"],["vir","on"],["en","ds</w>"],["go","vern"],["tech","ni"],["sol","u"],["res","pon"],["al","ten</w>"],["ma","the"],["z","o"],["ul","t</w>"],["b","an"],["en","viron"],["buil","d</w>"],["d","au"],["en","e</w>"],["c","ess"],["ra","di"],["stru","k"],["f","lie"],["n","ein</w>"],["reli","gi"],["sa","m</w>"],["tz","e</w>"],["führ","en</w>"],["yor","k</w>"],["simp","le</w>"],["glob","al</w>"],["je","den</w>"],["th","ers</w>"],["glei","ch"],["any","thing</w>"],["aus","ge"],["sch","ü"],["gefü","hl</w>"],["un","glaub"],["de","ci"],["ni","em"],["ous","ly</w>"],["in","dem</w>"],["shi","p</w>"],["b","it"],["k","ol"],["st","ro"],["gl","ück"],["t","an</w>"],["m","än"],["an","ti"],["go","es</w>"],["x","i"],["whi","le</w>"],["s","eit</w>"],["ent","de"],["kr","ank"],["g","ri"],["ph","ot"],["plan","et</w>"],["proje","ct</w>"],["bei","m</w>"],["teil","en</w>"],["da","ys</w>"],["su","p"],["res","ear"],["z","el"],["fam","ili"],["t","au"],["ma","kes</w>"],["nu","tzen</w>"],["sh","ar"],["pre","tty</w>"],["si","tu"],["er","de</w>"],["li","ves</w>"],["mo","ve</w>"],["f","-"],["st","ü"],["zu","kunft</w>"],["proble","ms</w>"],["po","wer"],["l","ed</w>"],["ges","agt</w>"],["c","ase</w>"],["su","ch</w>"],["heal","th</w>"],["t","old</w>"],["ac","ross</w>"],["hi","gh</w>"],["wor","ks</w>"],["mu","tter</w>"],["fil","m</w>"],["w","r"],["on","ce</w>"],["m","m</w>"],["por","t</w>"],["happ","en</w>"],["b","at"],["c","ke</w>"],["ver","sch"],["fall","s</w>"],["i","a</w>"],["ne","h"],["lich","es</w>"],["li","ving</w>"],["e","ben"],["ll","en</w>"],["b","ad</w>"],["c","ar</w>"],["e","p"],["s","einer</w>"],["he","ad</w>"],["bas","ically</w>"],["k","einen</w>"],["so","c"],["wahrschein","lich</w>"],["schaf","ten</w>"],["eigen","en</w>"],["c","er</w>"],["g","al"],["i","den"],["w","are</w>"],["ß","e</w>"],["fün","f</w>"],["hä","tte</w>"],["öff","ent"],["psy","ch"],["c","s</w>"],["el","se</w>"],["o","t</w>"],["si","ty</w>"],["sa","w</w>"],["na","tional</w>"],["br","u"],["mo","le"],["plan","e"],["n","ung</w>"],["in","e"],["gu","te</w>"],["1","0"],["st","en"],["milli","ar"],["par","t"],["der","s</w>"],["ye","t</w>"],["dis","co"],["imag","ine</w>"],["ch","mal</w>"],["per","fe"],["pic","ture</w>"],["t","est</w>"],["stell","ung</w>"],["spä","ter</w>"],["jo","b</w>"],["t","on"],["w","and"],["gan","g</w>"],["tra","di"],["inst","it"],["re","vol"],["ex","tre"],["partic","ul"],["4","0</w>"],["gi","r"],["sy","m"],["coun","tries</w>"],["er","klär"],["un","der</w>"],["l","s</w>"],["lan","g"],["happ","ens</w>"],["th","ough</w>"],["ta","tion</w>"],["re","me"],["ges","und"],["tr","an"],["fi","g"],["s","our"],["v","ation</w>"],["c","y"],["e","duc"],["wie","der"],["auß","er"],["be","wus"],["ha","ving</w>"],["m","ind</w>"],["amer","ic"],["za","hl</w>"],["ri","cht</w>"],["gen","e"],["bus","iness</w>"],["s","and"],["ges","am"],["zei","t"],["fam","ily</w>"],["stad","t</w>"],["her","aus</w>"],["at","h</w>"],["je","de</w>"],["hau","p"],["te","am</w>"],["soc","ie"],["h","ard</w>"],["ra","te</w>"],["spe","zi"],["bi","o"],["bi","r"],["experi","ence</w>"],["su","per"],["mar","k"],["zi","ert</w>"],["e","mo"],["we","gen</w>"],["as","ked</w>"],["l","ater</w>"],["p","e</w>"],["b","lei"],["hi","gh"],["proble","me</w>"],["nat","ure</w>"],["yo","ung</w>"],["sa","h</w>"],["a","tions</w>"],["s","-"],["un","gefä"],["schu","le</w>"],["s","h</w>"],["si","cher</w>"],["eff","e"],["f","er</w>"],["n","ame</w>"],["z","ation</w>"],["ol","s</w>"],["wor","den</w>"],["s","ung</w>"],["lan","ge</w>"],["s","ou"],["ein","zel"],["ide","as</w>"],["c","am"],["energ","ie</w>"],["in","spi"],["d","ungen</w>"],["be","d"],["le","gen</w>"],["an","zu"],["stu","d"],["tur","n</w>"],["lear","n</w>"],["ex","c"],["gel","e"],["bes","onder"],["se","qu"],["ele","k"],["funktion","iert</w>"],["ä","l"],["br","ei"],["pr","o</w>"],["ungefä","hr</w>"],["su","m"],["con","tin"],["bes","s"],["genom","men</w>"],["g","ar"],["n","ot"],["kon","tro"],["in","side</w>"],["ri","cht"],["h","aus</w>"],["k","at"],["ch","ter</w>"],["for","m"],["bi","li"],["richti","g</w>"],["an","al"],["ma","g"],["ge","stellt</w>"],["wen","ig</w>"],["h","le</w>"],["t","z</w>"],["er","fol"],["ver","k"],["every","body</w>"],["y","-"],["glei","ch</w>"],["u","."],["si","x</w>"],["hi","story</w>"],["kon","nten</w>"],["mar","ke"],["pro","cess</w>"],["o","ver"],["&a","mp"],["&amp",";</w>"],["res","t</w>"],["hel","fen</w>"],["gen","d</w>"],["sta","te</w>"],["fun","den</w>"],["ce","p"],["t","-"],["en","te</w>"],["ein","s</w>"],["sch","ni"],["op","en</w>"],["stat","es</w>"],["chil","d</w>"],["ameri","kan"],["erzä","hlen</w>"],["syste","ms</w>"],["reas","on</w>"],["bu","ch</w>"],["h","or"],["sa","ying</w>"],["all","en"],["no","thing</w>"],["lan","gu"],["billi","on</w>"],["schwi","er"],["intel","li"],["z","ellen</w>"],["bot","h</w>"],["sing","le</w>"],["hr","en</w>"],["incre","di"],["a","tive</w>"],["mo","v"],["bi","olog"],["ma","ch"],["ro","bot"],["o","ft</w>"],["re","cht</w>"],["ma","sch"],["te","m"],["ma","te</w>"],["neu","en</w>"],["hei","ßt</w>"],["kör","per</w>"],["with","in</w>"],["genu","g</w>"],["whe","ther</w>"],["s","st</w>"],["al","most</w>"],["lie","be</w>"],["t","at</w>"],["tr","ei"],["des","sen</w>"],["schn","ell</w>"],["w","onder"],["loo","ks</w>"],["mög","lich"],["f","ar</w>"],["iden","ti"],["c","ells</w>"],["br","ing</w>"],["our","s</w>"],["beau","ti"],["s","ü"],["dis","e"],["materi","al</w>"],["c","le</w>"],["ä","hn"],["ges","t</w>"],["a","st"],["le","vel</w>"],["ide","en</w>"],["k","li"],["ti","ge</w>"],["ex","pe"],["al","ready</w>"],["musi","c</w>"],["näch","sten</w>"],["vis","u"],["eu","rop"],["s","li"],["min","i"],["tra","gen</w>"],["wr","ong</w>"],["brau","cht</w>"],["den","e</w>"],["fin","an"],["can","cer</w>"],["p","hi"],["all","er</w>"],["zeu","g</w>"],["afri","ka</w>"],["reme","mber</w>"],["sch","au"],["tz","lich</w>"],["grupp","e</w>"],["m","äd"],["ou","ght</w>"],["ta","in"],["gr","en"],["ander","s</w>"],["ke","ep</w>"],["c","tive</w>"],["ge","ts</w>"],["gh","ts</w>"],["de","c"],["unser","em</w>"],["nis","se</w>"],["bis","schen</w>"],["hou","se</w>"],["z","un"],["th","ir"],["ger","n</w>"],["al","ität</w>"],["su","c"],["gu","y</w>"],["tur","es</w>"],["be","kan"],["tru","e</w>"],["d","y"],["beg","ann</w>"],["en","ces</w>"],["zie","h"],["t","lich</w>"],["au","di"],["ein","fl"],["ur","y</w>"],["mo","ther</w>"],["z","t</w>"],["re","den</w>"],["proje","kt</w>"],["ic","s</w>"],["0","s</w>"],["ti","ert</w>"],["or","der</w>"],["tivi","ty</w>"],["j","un"],["k","rei"],["ti","v</w>"],["dan","k</w>"],["un","t</w>"],["organ","i"],["hop","e</w>"],["le","uten</w>"],["vi","ce</w>"],["he","ard</w>"],["r","en"],["s","einen</w>"],["b","ly</w>"],["es","sen"],["si","cht</w>"],["for","der"],["unter","schie"],["commun","ity</w>"],["dar","um</w>"],["ell","er</w>"],["über","all</w>"],["loo","ked</w>"],["beauti","ful</w>"],["f","und"],["p","ac"],["er","weise</w>"],["zie","hen</w>"],["k","el</w>"],["di","re"],["be","hand"],["ri","ch"],["o","ce"],["be","vor</w>"],["geb","äu"],["eu","ch</w>"],["c","op"],["f","te</w>"],["n","ei"],["ü","s"],["o","ften</w>"],["w","es"],["sa","chen</w>"],["man","chmal</w>"],["pr","is"],["c","r"],["j","our"],["ma","tter</w>"],["eng","li"],["grou","p</w>"],["t","aus"],["ab","solu"],["pro","te"],["ges","i"],["k","ä"],["s","um</w>"],["plane","ten</w>"],["a","tionen</w>"],["vie","w</w>"],["ver","l"],["se","l</w>"],["fi","c</w>"],["m","ot"],["po","ten"],["glei","chen</w>"],["do","c"],["entwick","elt</w>"],["cle","ar</w>"],["pie","ce</w>"],["tic","s</w>"],["resear","ch</w>"],["s","qu"],["buil","t</w>"],["publi","c</w>"],["ar","gu"],["li","ter"],["di","men"],["ge","hört</w>"],["j","e</w>"],["t","ö"],["re","ad</w>"],["he","u"],["ber","s</w>"],["indi","a</w>"],["se","i</w>"],["at","or</w>"],["er","fahr"],["j","en"],["l","ing</w>"],["op","p"],["mon","ths</w>"],["6","0</w>"],["m","el"],["un","ited</w>"],["ti","l</w>"],["d","lich</w>"],["ch","allen"],["mi","dd"],["ans","wer</w>"],["ama","zing</w>"],["go","d</w>"],["fl","ä"],["c","al"],["nat","ur</w>"],["k","il"],["tz","ung</w>"],["la","te</w>"],["off","en"],["o","c"],["stor","ies</w>"],["stat","t</w>"],["wer","t</w>"],["as","es</w>"],["univer","se</w>"],["ar","en</w>"],["po","pu"],["some","one</w>"],["milliar","den</w>"],["h","und"],["t","ere</w>"],["ste","ad</w>"],["be","ha"],["ta","king</w>"],["unter","nehmen</w>"],["groß","arti"],["inn","er"],["che","mi"],["situ","ation</w>"],["on","-"],["sa","gten</w>"],["my","self</w>"],["en","z</w>"],["tr","ä"],["s","einem</w>"],["bo","o"],["hei","ten</w>"],["plac","es</w>"],["mi","cro"],["lie","gt</w>"],["wor","ds</w>"],["ph","one</w>"],["educ","ation</w>"],["z","in"],["ö","hn"],["in","stead</w>"],["do","m</w>"],["kl","as"],["c","ally</w>"],["we","st"],["mäd","chen</w>"],["t","om"],["al","isi"],["ri","es"],["informa","tionen</w>"],["sin","ce</w>"],["gen","au"],["fin","det</w>"],["t","ter"],["un","til</w>"],["is","m</w>"],["nen","nen</w>"],["g","ei"],["is","su"],["ander","es</w>"],["wissen","schaft</w>"],["cul","ture</w>"],["di","rec"],["us","a</w>"],["arbei","tet</w>"],["at","t"],["ye","ah</w>"],["speci","es</w>"],["is","n</w>"],["at","ely</w>"],["sto","ff"],["dn","a</w>"],["l","en</w>"],["nu","m"],["our","selves</w>"],["hei","ts"],["k","er"],["ci","r"],["wo","hn"],["contro","l</w>"],["d","or"],["some","times</w>"],["govern","ment</w>"],["we","b"],["f","and</w>"],["fi","el"],["fe","st"],["tor","s</w>"],["schlie","ß"],["s","op"],["u","tes</w>"],["is","cher</w>"],["fron","t</w>"],["kün","st"],["revol","ution</w>"],["1","2</w>"],["r","au"],["ö","n"],["ni","ght</w>"],["wirt","schaft</w>"],["e","ch"],["schi","ed</w>"],["gener","ation</w>"],["g","ol"],["ch","r"],["al","le"],["19","9"],["in","ing</w>"],["2","5</w>"],["gro","und</w>"],["h","ause</w>"],["ti","sche</w>"],["te","d"],["happ","y</w>"],["deci","ded</w>"],["st","ei"],["ver","b"],["in","ed</w>"],["om","e"],["some","body</w>"],["ap","pro"],["stand","ing</w>"],["er","kennen</w>"],["ti","al</w>"],["or","din"],["tra","g</w>"],["besonder","s</w>"],["am","es</w>"],["bil","der</w>"],["fam","il"],["c","ing</w>"],["ni","e"],["ex","ac"],["des","halb</w>"],["kam","en</w>"],["the","m"],["bi","g"],["sy","n"],["ap","pe"],["lli","g</w>"],["cou","ple</w>"],["midd","le</w>"],["an","im"],["he","art</w>"],["fe","hl"],["v","ari"],["ma","chte</w>"],["langu","age</w>"],["b","ür"],["ma","t"],["sto","p</w>"],["verän","dern</w>"],["o","ber"],["ra","ther</w>"],["su","chen</w>"],["jahr","hunder"],["tur","ns</w>"],["or","e</w>"],["or","ig"],["ph","il"],["st","ück</w>"],["tei","le</w>"],["geschi","chten</w>"],["gew","öhn"],["ic","al</w>"],["at","ur"],["mo","del</w>"],["geb","ie"],["spra","che</w>"],["gesell","schaft</w>"],["exac","tly</w>"],["st","ör"],["tre","ffen</w>"],["famil","ie</w>"],["f","rie"],["zent","r"],["kom","m"],["min","uten</w>"],["za","hlen</w>"],["st","ens</w>"],["sch","ä"],["ell","ing</w>"],["nam","ens</w>"],["ali","en</w>"],["lar","ge</w>"],["na","tion"],["kin","ds</w>"],["socie","ty</w>"],["ti","schen</w>"],["was","n</w>"],["errei","chen</w>"],["wor","d</w>"],["ru","n</w>"],["kl","ar</w>"],["berei","ts</w>"],["al","lo"],["every","one</w>"],["comp","any</w>"],["o","ben</w>"],["p","ur"],["wo","man</w>"],["bestim","m"],["c","at"],["e","th"],["v","ater</w>"],["li","c"],["le","b"],["tion","s"],["benu","tzen</w>"],["f","ot"],["k","ro"],["ll","t</w>"],["it","self</w>"],["fo","c"],["mer","k"],["m","mt</w>"],["ch","i"],["aus","zu"],["f","ur"],["v","il"],["ri","chten</w>"],["te","xt</w>"],["s","ä"],["te","ten</w>"],["ho","ch"],["sto","ff</w>"],["interess","an"],["d","ich</w>"],["i","en</w>"],["indi","en</w>"],["comple","tely</w>"],["z","es</w>"],["di","ag"],["ff","t</w>"],["na","hmen</w>"],["min","utes</w>"],["mus","ste</w>"],["them","selves</w>"],["g","ame</w>"],["t","ol"],["er","war"],["verschie","dene</w>"],["st","äd"],["ne","tz"],["ne","ws</w>"],["hä","tten</w>"],["leben","s</w>"],["anim","als</w>"],["b","are</w>"],["p","rei"],["indu","str"],["mög","lichkeit</w>"],["stud","ents</w>"],["se","chs</w>"],["l","am"],["s","atz</w>"],["u","ally</w>"],["st","am"],["st","elle</w>"],["sh","are</w>"],["bli","ck</w>"],["musi","k</w>"],["antwor","t</w>"],["sig","n"],["g","ni"],["k","tion</w>"],["p","h</w>"],["wer","k"],["to","m</w>"],["evol","ution</w>"],["hr","t</w>"],["bec","ame</w>"],["8","0</w>"],["f","la"],["be","ob"],["bil","dung</w>"],["en","-"],["ti","gt</w>"],["tri","e"],["sho","ws</w>"],["n","an"],["re","ch"],["ver","ed</w>"],["spiel","e</w>"],["k","al"],["m","ust</w>"],["ce","pt</w>"],["struc","ture</w>"],["j","ä"],["ch","ed</w>"],["selb","st"],["mathe","mati"],["beha","vi"],["auf","gab"],["experim","ent</w>"],["m","es"],["dar","in</w>"],["eng","ine"],["inno","vation</w>"],["t","able</w>"],["nat","u"],["happen","ing</w>"],["americ","a</w>"],["a","ir"],["vö","l"],["s","al"],["am","o"],["gen","de</w>"],["ameri","can</w>"],["environ","ment</w>"],["a","x"],["s","po"],["in","de"],["ne","ur"],["pl","es</w>"],
[...]
